{
  "version": "1.0",
  "truncation": null,
  "padding": null,
  "added_tokens": [
    {
      "id": 0,
      "content": "<|eos|>",
      "single_word": false,
      "lstrip": false,
      "rstrip": false,
      "normalized": false,
      "special": true
    }
  ],
  "normalizer": null,
  "pre_tokenizer": {
    "type": "ByteLevel",
    "add_prefix_space": false,
    "trim_offsets": true,
    "use_regex": true
  },
  "post_processor": null,
  "decoder": {
    "type": "ByteLevel",
    "add_prefix_space": true,
    "trim_offsets": true,
    "use_regex": true
  },
  "model": {
    "type": "BPE",
    "dropout": null,
    "unk_token": null,
    "continuing_subword_prefix": null,
    "end_of_word_suffix": null,
    "fuse_unk": false,
    "byte_fallback": false,
    "ignore_merges": false,
    "vocab": {
      "<|eos|>": 0,
      "!": 1,
      "\"": 2,
      "#": 3,
      "$": 4,
      "%": 5,
      "&": 6,
      "'": 7,
      "(": 8,
      ")": 9,
      "*": 10,
      "+": 11,
      ",": 12,
      "-": 13,
      ".": 14,
      "/": 15,
      "0": 16,
      "1": 17,
      "2": 18,
      "3": 19,
      "4": 20,
      "5": 21,
      "6": 22,
      "7": 23,
      "8": 24,
      "9": 25,
      ":": 26,
      ";": 27,
      "<": 28,
      "=": 29,
      ">": 30,
      "?": 31,
      "@": 32,
      "A": 33,
      "B": 34,
      "C": 35,
      "D": 36,
      "E": 37,
      "F": 38,
      "G": 39,
      "H": 40,
      "I": 41,
      "J": 42,
      "K": 43,
      "L": 44,
      "M": 45,
      "N": 46,
      "O": 47,
      "P": 48,
      "Q": 49,
      "R": 50,
      "S": 51,
      "T": 52,
      "U": 53,
      "V": 54,
      "W": 55,
      "X": 56,
      "Y": 57,
      "Z": 58,
      "[": 59,
      "\\": 60,
      "]": 61,
      "^": 62,
      "_": 63,
      "`": 64,
      "a": 65,
      "b": 66,
      "c": 67,
      "d": 68,
      "e": 69,
      "f": 70,
      "g": 71,
      "h": 72,
      "i": 73,
      "j": 74,
      "k": 75,
      "l": 76,
      "m": 77,
      "n": 78,
      "o": 79,
      "p": 80,
      "q": 81,
      "r": 82,
      "s": 83,
      "t": 84,
      "u": 85,
      "v": 86,
      "w": 87,
      "x": 88,
      "y": 89,
      "z": 90,
      "{": 91,
      "|": 92,
      "}": 93,
      "~": 94,
      "¡": 95,
      "¢": 96,
      "£": 97,
      "¤": 98,
      "¥": 99,
      "¦": 100,
      "§": 101,
      "¨": 102,
      "©": 103,
      "ª": 104,
      "«": 105,
      "¬": 106,
      "®": 107,
      "¯": 108,
      "°": 109,
      "±": 110,
      "²": 111,
      "³": 112,
      "´": 113,
      "µ": 114,
      "¶": 115,
      "·": 116,
      "¸": 117,
      "¹": 118,
      "º": 119,
      "»": 120,
      "¼": 121,
      "½": 122,
      "¾": 123,
      "¿": 124,
      "À": 125,
      "Á": 126,
      "Â": 127,
      "Ã": 128,
      "Ä": 129,
      "Å": 130,
      "Æ": 131,
      "Ç": 132,
      "È": 133,
      "É": 134,
      "Ê": 135,
      "Ë": 136,
      "Ì": 137,
      "Í": 138,
      "Î": 139,
      "Ï": 140,
      "Ð": 141,
      "Ñ": 142,
      "Ò": 143,
      "Ó": 144,
      "Ô": 145,
      "Õ": 146,
      "Ö": 147,
      "×": 148,
      "Ø": 149,
      "Ù": 150,
      "Ú": 151,
      "Û": 152,
      "Ü": 153,
      "Ý": 154,
      "Þ": 155,
      "ß": 156,
      "à": 157,
      "á": 158,
      "â": 159,
      "ã": 160,
      "ä": 161,
      "å": 162,
      "æ": 163,
      "ç": 164,
      "è": 165,
      "é": 166,
      "ê": 167,
      "ë": 168,
      "ì": 169,
      "í": 170,
      "î": 171,
      "ï": 172,
      "ð": 173,
      "ñ": 174,
      "ò": 175,
      "ó": 176,
      "ô": 177,
      "õ": 178,
      "ö": 179,
      "÷": 180,
      "ø": 181,
      "ù": 182,
      "ú": 183,
      "û": 184,
      "ü": 185,
      "ý": 186,
      "þ": 187,
      "ÿ": 188,
      "Ā": 189,
      "ā": 190,
      "Ă": 191,
      "ă": 192,
      "Ą": 193,
      "ą": 194,
      "Ć": 195,
      "ć": 196,
      "Ĉ": 197,
      "ĉ": 198,
      "Ċ": 199,
      "ċ": 200,
      "Č": 201,
      "č": 202,
      "Ď": 203,
      "ď": 204,
      "Đ": 205,
      "đ": 206,
      "Ē": 207,
      "ē": 208,
      "Ĕ": 209,
      "ĕ": 210,
      "Ė": 211,
      "ė": 212,
      "Ę": 213,
      "ę": 214,
      "Ě": 215,
      "ě": 216,
      "Ĝ": 217,
      "ĝ": 218,
      "Ğ": 219,
      "ğ": 220,
      "Ġ": 221,
      "ġ": 222,
      "Ģ": 223,
      "ģ": 224,
      "Ĥ": 225,
      "ĥ": 226,
      "Ħ": 227,
      "ħ": 228,
      "Ĩ": 229,
      "ĩ": 230,
      "Ī": 231,
      "ī": 232,
      "Ĭ": 233,
      "ĭ": 234,
      "Į": 235,
      "į": 236,
      "İ": 237,
      "ı": 238,
      "Ĳ": 239,
      "ĳ": 240,
      "Ĵ": 241,
      "ĵ": 242,
      "Ķ": 243,
      "ķ": 244,
      "ĸ": 245,
      "Ĺ": 246,
      "ĺ": 247,
      "Ļ": 248,
      "ļ": 249,
      "Ľ": 250,
      "ľ": 251,
      "Ŀ": 252,
      "ŀ": 253,
      "Ł": 254,
      "ł": 255,
      "Ń": 256,
      "Ġt": 257,
      "Ġa": 258,
      "he": 259,
      "in": 260,
      "re": 261,
      "Ġthe": 262,
      "on": 263,
      "er": 264,
      "Ġs": 265,
      "Ġw": 266,
      "Ġo": 267,
      "at": 268,
      "nd": 269,
      "Ġc": 270,
      "it": 271,
      "or": 272,
      "ed": 273,
      "es": 274,
      "en": 275,
      "Ġf": 276,
      "is": 277,
      "Ġb": 278,
      "ing": 279,
      "ou": 280,
      "Ġp": 281,
      "an": 282,
      "al": 283,
      "ar": 284,
      "Ġin": 285,
      "Ġof": 286,
      "Ġand": 287,
      "Ġto": 288,
      "Ġm": 289,
      "as": 290,
      "Ġd": 291,
      "ic": 292,
      "le": 293,
      "ion": 294,
      "Ġh": 295,
      "ro": 296,
      "Ġth": 297,
      "il": 298,
      "Ġre": 299,
      "ent": 300,
      "om": 301,
      "Ġl": 302,
      "st": 303,
      "Ġe": 304,
      "ve": 305,
      "Ġn": 306,
      "ĠT": 307,
      "ct": 308,
      "ly": 309,
      "ĠS": 310,
      "Ġbe": 311,
      "Ġg": 312,
      "ĠA": 313,
      "ĠI": 314,
      "Ġon": 315,
      "Ġy": 316,
      "et": 317,
      "Ġfor": 318,
      "id": 319,
      "ĠC": 320,
      "ot": 321,
      "am": 322,
      "ur": 323,
      "ad": 324,
      "ut": 325,
      "Ġis": 326,
      "ce": 327,
      "ol": 328,
      "im": 329,
      "ow": 330,
      "ig": 331,
      "us": 332,
      "ay": 333,
      "ch": 334,
      "ver": 335,
      "âĢ": 336,
      "ith": 337,
      "el": 338,
      "Ġyou": 339,
      "ir": 340,
      "ation": 341,
      "Ġst": 342,
      "ĠM": 343,
      "Ġthat": 344,
      "Ġwith": 345,
      "ĠB": 346,
      "Ġ1": 347,
      "Ġas": 348,
      "ra": 349,
      "Ġwas": 350,
      "her": 351,
      "ter": 352,
      "Ġit": 353,
      "Ġal": 354,
      "ul": 355,
      "ĠP": 356,
      "un": 357,
      "Ġan": 358,
      "Ġwh": 359,
      "ĠThe": 360,
      "Ġpro": 361,
      "ĠH": 362,
      "se": 363,
      "Ġcon": 364,
      "ers": 365,
      "ill": 366,
      "Ġwe": 367,
      "ge": 368,
      "ĠW": 369,
      "if": 370,
      "Ġat": 371,
      "Ġhe": 372,
      "ĠD": 373,
      "th": 374,
      "ĠR": 375,
      "ri": 376,
      "Ġ2": 377,
      "ac": 378,
      "Ġcom": 379,
      "od": 380,
      "ĠF": 381,
      "est": 382,
      "Ġare": 383,
      "pp": 384,
      "ke": 385,
      "ate": 386,
      "Ġ(": 387,
      "um": 388,
      "Ġse": 389,
      "Ġor": 390,
      "Ġby": 391,
      "Ġde": 392,
      "and": 393,
      "ist": 394,
      "ess": 395,
      "rom": 396,
      "ore": 397,
      "ab": 398,
      "ĠL": 399,
      "ĠG": 400,
      "ld": 401,
      "ment": 402,
      "igh": 403,
      "ain": 404,
      "'s": 405,
      "op": 406,
      "âĢĻ": 407,
      "Ġex": 408,
      "ĠN": 409,
      "Ġfrom": 410,
      "Ġv": 411,
      "qu": 412,
      "os": 413,
      "em": 414,
      "ure": 415,
      "Ġha": 416,
      "ant": 417,
      "ĠE": 418,
      "Ġne": 419,
      "Ġr": 420,
      "ort": 421,
      "ive": 422,
      "art": 423,
      "ity": 424,
      "pe": 425,
      "ies": 426,
      "Ġsu": 427,
      "oc": 428,
      "00": 429,
      "Ġch": 430,
      "Ġsh": 431,
      "all": 432,
      "ard": 433,
      "ĠJ": 434,
      "Ġ\"": 435,
      "ust": 436,
      "ĠO": 437,
      "red": 438,
      "ud": 439,
      "te": 440,
      "iv": 441,
      "res": 442,
      "Ġnot": 443,
      "Ġhave": 444,
      "nt": 445,
      "Ġus": 446,
      "our": 447,
      "Ġyour": 448,
      "gh": 449,
      "ight": 450,
      "Ġle": 451,
      "Ġpl": 452,
      "Ġu": 453,
      "rou": 454,
      "Ġthis": 455,
      "ost": 456,
      "ial": 457,
      "ich": 458,
      "ag": 459,
      "ie": 460,
      "pt": 461,
      "ĠâĢ": 462,
      "Ġcan": 463,
      "ome": 464,
      "ide": 465,
      "ine": 466,
      "out": 467,
      "ast": 468,
      "ould": 469,
      "ak": 470,
      "ong": 471,
      "Ġwor": 472,
      "ated": 473,
      "Ġhis": 474,
      "ip": 475,
      "Ġab": 476,
      "per": 477,
      "Ġk": 478,
      "ction": 479,
      "ber": 480,
      "ell": 481,
      "ear": 482,
      "Ġ19": 483,
      "ok": 484,
      "Ġcomp": 485,
      "fe": 486,
      "ally": 487,
      "Ġall": 488,
      "ack": 489,
      "The": 490,
      "ĠU": 491,
      "age": 492,
      "Ġwill": 493,
      "ame": 494,
      "ĠIn": 495,
      "ther": 496,
      "og": 497,
      "Ġwhe": 498,
      "Ġad": 499,
      "Ġbut": 500,
      "Ġwhich": 501,
      "ĠK": 502,
      "Ġwere": 503,
      "Ġj": 504,
      "ice": 505,
      "cc": 506,
      "Ġhas": 507,
      "ry": 508,
      "Ġtheir": 509,
      "pl": 510,
      "so": 511,
      "Ġcl": 512,
      "cl": 513,
      "ous": 514,
      "Ġen": 515,
      "orm": 516,
      "Ġgo": 517,
      "Ġun": 518,
      "Ġcont": 519,
      "ia": 520,
      "ans": 521,
      "able": 522,
      "ind": 523,
      "ite": 524,
      "are": 525,
      "ime": 526,
      "Ġout": 527,
      "Ġhad": 528,
      "ap": 529,
      "ary": 530,
      "ign": 531,
      "ance": 532,
      "ru": 533,
      "du": 534,
      "iz": 535,
      "one": 536,
      "ake": 537,
      "Ġone": 538,
      "ition": 539,
      "Ġdo": 540,
      "ĠTh": 541,
      "av": 542,
      "Ġup": 543,
      "ire": 544,
      "Ġres": 545,
      "ĠSt": 546,
      "Ġthey": 547,
      "Ġme": 548,
      "Ġim": 549,
      "ook": 550,
      "Ġalso": 551,
      "ass": 552,
      "act": 553,
      "ord": 554,
      "Ġte": 555,
      "ical": 556,
      "Ġapp": 557,
      "Ġmore": 558,
      "Ġint": 559,
      "Ġ20": 560,
      "Ġso": 561,
      "ree": 562,
      "Ġper": 563,
      "ult": 564,
      "ach": 565,
      "ks": 566,
      "Ġwho": 567,
      "ĠCh": 568,
      "Ġman": 569,
      "ll": 570,
      "very": 571,
      "ub": 572,
      "ue": 573,
      "ib": 574,
      "ĠV": 575,
      "Ġar": 576,
      "ations": 577,
      "ail": 578,
      "Ġfe": 579,
      "ish": 580,
      "ile": 581,
      "ne": 582,
      "ove": 583,
      "ond": 584,
      "ace": 585,
      "Ġ3": 586,
      "ff": 587,
      "ĠY": 588,
      "own": 589,
      "Ġser": 590,
      "ase": 591,
      "ater": 592,
      "Ġpart": 593,
      "Ġother": 594,
      "irst": 595,
      "fter": 596,
      "ike": 597,
      "Ġdis": 598,
      "Ġoff": 599,
      "form": 600,
      "ions": 601,
      "Ġits": 602,
      "ĠIt": 603,
      "Ġabout": 604,
      "Ġtime": 605,
      "ence": 606,
      "ian": 607,
      "Ġyear": 608,
      "Ġbeen": 609,
      "rit": 610,
      "Ġrec": 611,
      "Ġsp": 612,
      "ount": 613,
      "vel": 614,
      "reat": 615,
      "Ġsc": 616,
      "Ġover": 617,
      "Ġher": 618,
      "Ġqu": 619,
      "wo": 620,
      "Ġev": 621,
      "ough": 622,
      "Ġro": 623,
      "ark": 624,
      "ose": 625,
      "Ġag": 626,
      "Ġour": 627,
      "ound": 628,
      "ick": 629,
      "mer": 630,
      "Ġwork": 631,
      "Ġfirst": 632,
      "ress": 633,
      "ck": 634,
      "Ġ201": 635,
      "Ġdes": 636,
      "ĠâĢĵ": 637,
      "Ġnew": 638,
      "Ġmy": 639,
      "Ġbec": 640,
      "ĠHe": 641,
      "ens": 642,
      "ents": 643,
      "ings": 644,
      "low": 645,
      "hed": 646,
      "ep": 647,
      "ors": 648,
      "Ġspe": 649,
      "Ġpre": 650,
      "ays": 651,
      "ov": 652,
      "Ġwould": 653,
      "clud": 654,
      "ory": 655,
      "Ġtr": 656,
      "Ġthem": 657,
      "wn": 658,
      "Ġsome": 659,
      "ade": 660,
      "Ġwhen": 661,
      "ild": 662,
      "ren": 663,
      "int": 664,
      "Ġany": 665,
      "nder": 666,
      "Ġinto": 667,
      "oy": 668,
      "port": 669,
      "vers": 670,
      "rough": 671,
      "ang": 672,
      "Ġsa": 673,
      "Ġtwo": 674,
      "Ġthan": 675,
      "old": 676,
      "ces": 677,
      "Ġpe": 678,
      "Ġinclud": 679,
      "Ġthere": 680,
      "Ġlike": 681,
      "Ġ200": 682,
      "Ġkn": 683,
      "ric": 684,
      "Ġtra": 685,
      "Ġacc": 686,
      "we": 687,
      "aus": 688,
      "ob": 689,
      "Ġcomm": 690,
      "ons": 691,
      "ning": 692,
      "ph": 693,
      "ates": 694,
      "Ġ4": 695,
      "uring": 696,
      ").": 697,
      "ft": 698,
      "Ġam": 699,
      "ced": 700,
      "Ġget": 701,
      "Ġafter": 702,
      "ood": 703,
      "Ġco": 704,
      "tern": 705,
      "ious": 706,
      "amp": 707,
      "les": 708,
      "Ġbet": 709,
      "Ġ5": 710,
      "Ġmost": 711,
      "lic": 712,
      "Ġcol": 713,
      "Ġprodu": 714,
      "round": 715,
      "Ġonly": 716,
      "ual": 717,
      "Ġprov": 718,
      "Ġshe": 719,
      "Ġbu": 720,
      "Ġif": 721,
      "ased": 722,
      "Ġneed": 723,
      "ward": 724,
      "Ġ'": 725,
      "Ġthrough": 726,
      "ĠThis": 727,
      "Ġcons": 728,
      "Ġwhat": 729,
      "Ġhow": 730,
      "urn": 731,
      "cted": 732,
      "Ġplay": 733,
      "Ġadd": 734,
      "oth": 735,
      "ied": 736,
      "),": 737,
      "Ġunder": 738,
      "Ġserv": 739,
      "ating": 740,
      "land": 741,
      "ew": 742,
      "Ġind": 743,
      "cial": 744,
      "Ġatt": 745,
      "Ġra": 746,
      "ople": 747,
      "rent": 748,
      "Ġjust": 749,
      "fore": 750,
      "iew": 751,
      "Ġbl": 752,
      "ĠWe": 753,
      "Ġrem": 754,
      "je": 755,
      "erm": 756,
      "ific": 757,
      "iss": 758,
      "ful": 759,
      "Ġmay": 760,
      "ĠUn": 761,
      "ng": 762,
      "ited": 763,
      "Ġwell": 764,
      "âĢĿ": 765,
      "Ġsec": 766,
      "Ġfl": 767,
      "Ġuse": 768,
      "ting": 769,
      "Ġact": 770,
      "Ġno": 771,
      "ink": 772,
      "..": 773,
      "ts": 774,
      "Ġreg": 775,
      "ĠSe": 776,
      "Ġrel": 777,
      "lp": 778,
      "Ġsupp": 779,
      "Ġsy": 780,
      "ise": 781,
      "ĠRe": 782,
      "ments": 783,
      "Ġpos": 784,
      "ause": 785,
      "Ġpo": 786,
      "ram": 787,
      "hen": 788,
      "als": 789,
      "ss": 790,
      "hip": 791,
      "Ġpr": 792,
      "Ġfin": 793,
      "Ġinc": 794,
      "aw": 795,
      "end": 796,
      "ath": 797,
      "Ġmake": 798,
      "Ġloc": 799,
      "ational": 800,
      "Ġhelp": 801,
      "ular": 802,
      "cts": 803,
      "Ġpeople": 804,
      "ix": 805,
      "gan": 806,
      "rib": 807,
      "Ġhim": 808,
      "Ġwhere": 809,
      "ily": 810,
      "Ġback": 811,
      "Ġem": 812,
      "ities": 813,
      "ature": 814,
      "ont": 815,
      "Ġdif": 816,
      "any": 817,
      "Ġthese": 818,
      "Ġph": 819,
      "Ġass": 820,
      "Ġinv": 821,
      "In": 822,
      "tle": 823,
      "Ġyears": 824,
      "ĠâĢľ": 825,
      "ife": 826,
      "Ġac": 827,
      "Ġent": 828,
      "ted": 829,
      "Ġthen": 830,
      "ange": 831,
      "Ġmany": 832,
      "ool": 833,
      "Ġsub": 834,
      "hes": 835,
      "Ġsuch": 836,
      "ock": 837,
      "Ġstud": 838,
      "ener": 839,
      "Ġimp": 840,
      "Ġfil": 841,
      "Ġagain": 842,
      "Ġhigh": 843,
      "Ġ18": 844,
      "row": 845,
      "ason": 846,
      "velop": 847,
      "Ġset": 848,
      "uch": 849,
      "Ġnum": 850,
      "Ġ6": 851,
      "ollow": 852,
      "Ġdec": 853,
      "Ġend": 854,
      "Ġcould": 855,
      "Ġlook": 856,
      "cess": 857,
      "ert": 858,
      "olog": 859,
      "Ġcar": 860,
      "ĠAl": 861,
      "Ġsm": 862,
      "Ġear": 863,
      "elf": 864,
      "ative": 865,
      "ible": 866,
      "Ġmade": 867,
      "Ġused": 868,
      "ffe": 869,
      "Ġ-": 870,
      "way": 871,
      "Ġevery": 872,
      "ween": 873,
      "ics": 874,
      "ĠDe": 875,
      "ved": 876,
      "Ġinst": 877,
      "Ġret": 878,
      "erson": 879,
      "ident": 880,
      "ty": 881,
      "ict": 882,
      "air": 883,
      "arch": 884,
      ".\"": 885,
      "Ġwhile": 886,
      "Ġbefore": 887,
      "Ġknow": 888,
      "Ġchar": 889,
      "Ġform": 890,
      "xt": 891,
      "Ġvery": 892,
      "ork": 893,
      "io": 894,
      "Ġwant": 895,
      "eth": 896,
      "ins": 897,
      "aking": 898,
      "ower": 899,
      "Ġexper": 900,
      "its": 901,
      "ility": 902,
      "stem": 903,
      "Ġdesign": 904,
      "Ġsur": 905,
      "Ġown": 906,
      "ven": 907,
      "ĠCom": 908,
      "ĠAr": 909,
      "Ġduring": 910,
      "Ġbetween": 911,
      "ices": 912,
      "up": 913,
      "Ġele": 914,
      "ten": 915,
      "ever": 916,
      "other": 917,
      "Ġsee": 918,
      "get": 919,
      "Ġke": 920,
      "ys": 921,
      "ug": 922,
      "ank": 923,
      "\".": 924,
      "ĠYou": 925,
      "Ġbeing": 926,
      "Ġsaid": 927,
      "Ġinter": 928,
      "Ġshow": 929,
      "Ġlong": 930,
      "Ġcall": 931,
      "ĠNew": 932,
      "Ġdown": 933,
      "iness": 934,
      "Ġpres": 935,
      "Ġstart": 936,
      "Ġmin": 937,
      "ale": 938,
      "Ġdevelop": 939,
      "Ġmon": 940,
      "Ġ7": 941,
      "bs": 942,
      "Ġins": 943,
      "Th": 944,
      "Ġgood": 945,
      "Ġdid": 946,
      "Ġcre": 947,
      "Ġbr": 948,
      "Ġeven": 949,
      "Ġday": 950,
      "ience": 951,
      "day": 952,
      "ble": 953,
      "Ġbus": 954,
      "oun": 955,
      "ner": 956,
      "Ġfollow": 957,
      "Ġthree": 958,
      "Ġway": 959,
      "Ġgu": 960,
      "led": 961,
      "ash": 962,
      "Ġmod": 963,
      "ines": 964,
      "ually": 965,
      "ĠWh": 966,
      "Ġbest": 967,
      "000": 968,
      "Ġbecause": 969,
      "Ġmem": 970,
      "Ġlar": 971,
      "cept": 972,
      "pr": 973,
      "ract": 974,
      "Ġpub": 975,
      "Ġteam": 976,
      "iel": 977,
      "Ġcomple": 978,
      "Ġ8": 979,
      "Ġmuch": 980,
      "Ġsim": 981,
      "ax": 982,
      "Ġop": 983,
      "und": 984,
      "Ġcent": 985,
      "Ġrequ": 986,
      "ision": 987,
      "Ġ10": 988,
      "ather": 989,
      "Ġtrans": 990,
      "ince": 991,
      "Ġfam": 992,
      "ĠSh": 993,
      "az": 994,
      "chool": 995,
      "Ġdiffe": 996,
      "meric": 997,
      "ving": 998,
      "Ġshould": 999,
      "Ġhome": 1000,
      "Ġgame": 1001,
      "ouse": 1002,
      "cy": 1003,
      "ient": 1004,
      "ier": 1005,
      "ave": 1006,
      "Ġnow": 1007,
      "Ġfilm": 1008,
      "Ġdisc": 1009,
      "Ġlead": 1010,
      "Ġsystem": 1011,
      "iet": 1012,
      "man": 1013,
      "Ġgreat": 1014,
      "Ġfind": 1015,
      "ĠLe": 1016,
      "ars": 1017,
      "Ġart": 1018,
      "Ġright": 1019,
      "Ġmus": 1020,
      "rest": 1021,
      "ull": 1022,
      "Ġboth": 1023,
      "der": 1024,
      "Ġfound": 1025,
      "ton": 1026,
      "ĠAs": 1027,
      "Ġrele": 1028,
      "Ġinform": 1029,
      "atch": 1030,
      "Ġpol": 1031,
      "roup": 1032,
      "orth": 1033,
      "ject": 1034,
      "ished": 1035,
      "ral": 1036,
      "oh": 1037,
      "Ġinte": 1038,
      "Ġsecond": 1039,
      "ah": 1040,
      "ames": 1041,
      "Ġ$": 1042,
      "Ġav": 1043,
      "ĠAn": 1044,
      "ired": 1045,
      "Ġexp": 1046,
      "Ġrep": 1047,
      "Ġperform": 1048,
      "Ġeach": 1049,
      "line": 1050,
      "Ġtake": 1051,
      "Ġmain": 1052,
      "ues": 1053,
      "Ġsign": 1054,
      "view": 1055,
      "Ġnumber": 1056,
      "ĠAmeric": 1057,
      "Ġprog": 1058,
      "Ġ9": 1059,
      "ters": 1060,
      "Ġperson": 1061,
      "Ġbo": 1062,
      "ution": 1063,
      "Ġdet": 1064,
      "ĠPro": 1065,
      "Ġwee": 1066,
      "Ġworld": 1067,
      "imes": 1068,
      "com": 1069,
      "outh": 1070,
      "au": 1071,
      "ross": 1072,
      "Ġincluding": 1073,
      "Ġsupport": 1074,
      "ĠCl": 1075,
      "Ġaround": 1076,
      "Ġche": 1077,
      "Ġdire": 1078,
      "ized": 1079,
      "Ġmed": 1080,
      "Ġlife": 1081,
      "aj": 1082,
      "ĠBe": 1083,
      "Ġwrit": 1084,
      "ctions": 1085,
      "Ġmark": 1086,
      "Ġprovid": 1087,
      "Ġadv": 1088,
      "Ġread": 1089,
      "'t": 1090,
      "ets": 1091,
      "Ġthose": 1092,
      "ĠOn": 1093,
      "Ġsame": 1094,
      "ures": 1095,
      "Ġbusiness": 1096,
      "ages": 1097,
      "chn": 1098,
      "ined": 1099,
      "ivers": 1100,
      "Ġed": 1101,
      "Ġrun": 1102,
      "alth": 1103,
      "ctive": 1104,
      "ality": 1105,
      "oad": 1106,
      "Ġfour": 1107,
      "ene": 1108,
      "Ġ&": 1109,
      "ives": 1110,
      "ĠAnd": 1111,
      "Ġrecord": 1112,
      "Ġaut": 1113,
      "Ġgener": 1114,
      "rop": 1115,
      "ared": 1116,
      "Ġsong": 1117,
      "Ġcount": 1118,
      "Ġstr": 1119,
      "ode": 1120,
      "ists": 1121,
      "Ġlater": 1122,
      "Ġcare": 1123,
      "Ġlast": 1124,
      "ute": 1125,
      "Ġhand": 1126,
      "ield": 1127,
      "Ġgr": 1128,
      "ern": 1129,
      "ional": 1130,
      "ple": 1131,
      "Ġref": 1132,
      "Ġthough": 1133,
      "Ġvis": 1134,
      "Ġspec": 1135,
      "Ġlit": 1136,
      "Ġvar": 1137,
      "Ġ199": 1138,
      "Ġcontin": 1139,
      "Ġrece": 1140,
      "ĠFor": 1141,
      "Ġext": 1142,
      "ik": 1143,
      "orn": 1144,
      "Ġcur": 1145,
      "Ġbook": 1146,
      "ury": 1147,
      "ĠIf": 1148,
      "arm": 1149,
      "Ġdifferent": 1150,
      "vern": 1151,
      "Ġinformation": 1152,
      "Ġresult": 1153,
      "els": 1154,
      "Ġdon": 1155,
      "akes": 1156,
      "ĠSc": 1157,
      "\",": 1158,
      "bers": 1159,
      "Ġplace": 1160,
      "Ġchild": 1161,
      "Ġsk": 1162,
      "Ġopen": 1163,
      "ann": 1164,
      "Ġdoes": 1165,
      "Ġpass": 1166,
      "Ġpoint": 1167,
      "Ġeas": 1168,
      "ize": 1169,
      "Ġsing": 1170,
      "Ġsmall": 1171,
      "20": 1172,
      "Ġcour": 1173,
      "erv": 1174,
      "the": 1175,
      "uc": 1176,
      "gg": 1177,
      "ĠShe": 1178,
      "Ġdist": 1179,
      "ĠHow": 1180,
      "Ġpartic": 1181,
      "ĠThey": 1182,
      "alk": 1183,
      "ccess": 1184,
      "Ġbuild": 1185,
      "Ġagainst": 1186,
      "Ġpur": 1187,
      "ised": 1188,
      "ered": 1189,
      "Ġpost": 1190,
      "ained": 1191,
      "Ġseason": 1192,
      "ird": 1193,
      "ane": 1194,
      "ata": 1195,
      "oot": 1196,
      "ness": 1197,
      "Ġgroup": 1198,
      "Ġtop": 1199,
      "ived": 1200,
      "ants": 1201,
      "read": 1202,
      "mber": 1203,
      "inal": 1204,
      "ĠInd": 1205,
      "riend": 1206,
      "ctor": 1207,
      "ism": 1208,
      "Ġair": 1209,
      "ĠAt": 1210,
      "Ġstill": 1211,
      "Ġbro": 1212,
      "Ġcommun": 1213,
      "Ġallow": 1214,
      "ustom": 1215,
      "ron": 1216,
      "ining": 1217,
      "uss": 1218,
      "Ġstate": 1219,
      "Ġusing": 1220,
      "Ġpop": 1221,
      "Ġfun": 1222,
      "illion": 1223,
      "Ġcharact": 1224,
      "Ġbel": 1225,
      "veral": 1226,
      "Ġunt": 1227,
      "Ġfeature": 1228,
      "Ġ/": 1229,
      "Ġrest": 1230,
      "Ġprogram": 1231,
      "ĠAd": 1232,
      "Ġprocess": 1233,
      "iver": 1234,
      "Ġest": 1235,
      "Ġinf": 1236,
      "ger": 1237,
      "19": 1238,
      "Ġdel": 1239,
      "Ġprof": 1240,
      "Ġcle": 1241,
      "Ġhere": 1242,
      "Ġwater": 1243,
      "ium": 1244,
      "Ġty": 1245,
      "Ġthink": 1246,
      "Ġposs": 1247,
      "Ġlist": 1248,
      "Ġimport": 1249,
      "Ġconf": 1250,
      "ĠâĢĶ": 1251,
      "ural": 1252,
      "Ġob": 1253,
      "anc": 1254,
      "Ġfew": 1255,
      "ley": 1256,
      "ically": 1257,
      "iqu": 1258,
      "apt": 1259,
      "ody": 1260,
      "ĠZ": 1261,
      "Ġcolle": 1262,
      "Ġmov": 1263,
      "rand": 1264,
      "ĠFr": 1265,
      "iving": 1266,
      "Ġmonth": 1267,
      "Ġdef": 1268,
      "Ġsol": 1269,
      "Ġ15": 1270,
      "ately": 1271,
      "ital": 1272,
      "Ġfree": 1273,
      "Ġavail": 1274,
      "Ġoper": 1275,
      "Ġtechn": 1276,
      "ĠBl": 1277,
      "Ġfr": 1278,
      "ĠCol": 1279,
      "Ġsom": 1280,
      "ways": 1281,
      "bum": 1282,
      "ology": 1283,
      "Ġmet": 1284,
      "Ġschool": 1285,
      "Ġarea": 1286,
      "Ġresp": 1287,
      "Ġlarge": 1288,
      "Ġorgan": 1289,
      "Ġclass": 1290,
      "vent": 1291,
      "Ġuntil": 1292,
      "ves": 1293,
      "Ġfamily": 1294,
      "ĠPl": 1295,
      "ling": 1296,
      "Ġpri": 1297,
      "Ġcor": 1298,
      "Ġhead": 1299,
      "ember": 1300,
      "rist": 1301,
      "Ġreport": 1302,
      "Ġ12": 1303,
      "Ġseveral": 1304,
      "Ġgl": 1305,
      "Ġalong": 1306,
      "Ġlove": 1307,
      "arn": 1308,
      "less": 1309,
      "Ġincre": 1310,
      "Ġpat": 1311,
      "Ġide": 1312,
      "Ġcompany": 1313,
      "oss": 1314,
      "cent": 1315,
      "Ġtri": 1316,
      "ĠTe": 1317,
      "Ġiss": 1318,
      "Ġeffe": 1319,
      "self": 1320,
      "Ġval": 1321,
      "ĠCon": 1322,
      "ĠQ": 1323,
      "This": 1324,
      "Ġsuccess": 1325,
      "Ġanother": 1326,
      "Ġservice": 1327,
      "Ġorig": 1328,
      "Ġprom": 1329,
      "ering": 1330,
      "raph": 1331,
      "ĠEng": 1332,
      "Ġsince": 1333,
      "son": 1334,
      "osed": 1335,
      "me": 1336,
      "Ġconst": 1337,
      "be": 1338,
      "rol": 1339,
      "We": 1340,
      "Ġreally": 1341,
      "Ġep": 1342,
      "Ġdep": 1343,
      "reen": 1344,
      "Ġwin": 1345,
      "Ġmusic": 1346,
      "Ġcustom": 1347,
      "ohn": 1348,
      "Ġtoo": 1349,
      "Ġreal": 1350,
      "ris": 1351,
      "Ġnext": 1352,
      "Ġappro": 1353,
      "Ġwithout": 1354,
      "Ġsl": 1355,
      "Ġnear": 1356,
      "ĠAll": 1357,
      "Ġavailable": 1358,
      "ĠSp": 1359,
      "ified": 1360,
      "tend": 1361,
      "ĠUnited": 1362,
      "ĠUS": 1363,
      "Ġeng": 1364,
      "ĠIs": 1365,
      "Ġhist": 1366,
      "ĠThere": 1367,
      "Ġexpl": 1368,
      "ien": 1369,
      "Ġopp": 1370,
      "Ġstand": 1371,
      "iam": 1372,
      "Ġalbum": 1373,
      "Ġseries": 1374,
      "ains": 1375,
      "Ġpower": 1376,
      "ĠMar": 1377,
      "eng": 1378,
      "Ġpublic": 1379,
      "Ġplan": 1380,
      "gy": 1381,
      "ior": 1382,
      "ober": 1383,
      "Ġaddition": 1384,
      "Ġ17": 1385,
      "lish": 1386,
      "con": 1387,
      "ajor": 1388,
      "Ġwithin": 1389,
      "Ġann": 1390,
      "Ġinterest": 1391,
      "Ġbat": 1392,
      "gin": 1393,
      "Ġgoing": 1394,
      "ret": 1395,
      "pend": 1396,
      "ploy": 1397,
      "oint": 1398,
      "wards": 1399,
      "ense": 1400,
      "though": 1401,
      "Ġevent": 1402,
      "Ġfact": 1403,
      "Ġfriend": 1404,
      "une": 1405,
      "Ġearly": 1406,
      "ards": 1407,
      "Ġsit": 1408,
      "Ġdri": 1409,
      "Ġmarket": 1410,
      "Ġlevel": 1411,
      "ina": 1412,
      "Ġopt": 1413,
      "Ġland": 1414,
      "Ġ0": 1415,
      "Ġgovern": 1416,
      "Ġknown": 1417,
      "crib": 1418,
      "ission": 1419,
      "med": 1420,
      "Ġlittle": 1421,
      "Ġocc": 1422,
      "Ġcalled": 1423,
      "Ġkeep": 1424,
      "to": 1425,
      "Ġreturn": 1426,
      "ots": 1427,
      "ently": 1428,
      "por": 1429,
      "my": 1430,
      "ĠMay": 1431,
      "Ġcho": 1432,
      "ĠJohn": 1433,
      "Ġcost": 1434,
      "Ġdays": 1435,
      "Ġbecame": 1436,
      "ery": 1437,
      "ĠPh": 1438,
      "Ġview": 1439,
      "iversity": 1440,
      "Ġold": 1441,
      "10": 1442,
      "ivid": 1443,
      "ued": 1444,
      "Ġsay": 1445,
      "Ġlight": 1446,
      "Ġimportant": 1447,
      "Ġbre": 1448,
      "Ġfeel": 1449,
      "Ġorder": 1450,
      "blem": 1451,
      "ĠBut": 1452,
      "Wh": 1453,
      "Ġmillion": 1454,
      "ats": 1455,
      "aut": 1456,
      "ĠAmerican": 1457,
      "Ġsoc": 1458,
      "Ġve": 1459,
      "Ġprote": 1460,
      "rence": 1461,
      "Ġname": 1462,
      "Ġhapp": 1463,
      "Ġvide": 1464,
      "ĠBrit": 1465,
      "Ġequ": 1466,
      "Ġable": 1467,
      "mit": 1468,
      "work": 1469,
      "Ġturn": 1470,
      "enn": 1471,
      "ales": 1472,
      "stand": 1473,
      "raft": 1474,
      "mon": 1475,
      "pped": 1476,
      "Ġexperience": 1477,
      "bo": 1478,
      "orld": 1479,
      "ĠAust": 1480,
      "ours": 1481,
      "Ġcr": 1482,
      "Ġmust": 1483,
      "ged": 1484,
      "Ġless": 1485,
      "Ġpresent": 1486,
      "vious": 1487,
      "50": 1488,
      "ator": 1489,
      "Ġmar": 1490,
      "Ġspecial": 1491,
      "Ġlocal": 1492,
      "Ġline": 1493,
      "Ġbelie": 1494,
      "uro": 1495,
      "Ġ16": 1496,
      "Ġcap": 1497,
      "gr": 1498,
      "ffic": 1499,
      "ential": 1500,
      "Ġprovide": 1501,
      "Ġput": 1502,
      "Ġbetter": 1503,
      "ĠHowever": 1504,
      "Ġcome": 1505,
      "Ġhealth": 1506,
      "Ġnever": 1507,
      "Ġleft": 1508,
      "Ġ.": 1509,
      "Ġdata": 1510,
      "Ġpay": 1511,
      "Ġservices": 1512,
      "Ġoffic": 1513,
      "Ġcity": 1514,
      "ored": 1515,
      "pect": 1516,
      "Ġ198": 1517,
      "ertain": 1518,
      "lished": 1519,
      "Ġmil": 1520,
      "ording": 1521,
      "Ġvers": 1522,
      "Ġfull": 1523,
      "ĠAfter": 1524,
      "itions": 1525,
      "ware": 1526,
      "Ġconc": 1527,
      "Ġepis": 1528,
      "Ġmajor": 1529,
      "Ġproblem": 1530,
      "ases": 1531,
      "aim": 1532,
      "Ġreview": 1533,
      "Ġalways": 1534,
      "ĠCan": 1535,
      "by": 1536,
      "Ġtook": 1537,
      "Ġcrit": 1538,
      "Ġproper": 1539,
      "ruct": 1540,
      "Ġshort": 1541,
      "Ġfac": 1542,
      "ney": 1543,
      "Ġappear": 1544,
      "Ġtest": 1545,
      "Ġleg": 1546,
      "ec": 1547,
      "It": 1548,
      "Ġweek": 1549,
      "oney": 1550,
      "Ġterm": 1551,
      "ured": 1552,
      "Ġquest": 1553,
      "Ġmat": 1554,
      "Ġel": 1555,
      "ĠOr": 1556,
      "thing": 1557,
      "ps": 1558,
      "Ġfollowing": 1559,
      "Ġ11": 1560,
      "ĠEx": 1561,
      "Ġgrow": 1562,
      "Ġoften": 1563,
      "ĠMe": 1564,
      "ĠTr": 1565,
      "side": 1566,
      "aster": 1567,
      "Ġcurrent": 1568,
      "Ġlet": 1569,
      "let": 1570,
      "ilt": 1571,
      "co": 1572,
      "iven": 1573,
      "of": 1574,
      "Ġsite": 1575,
      "oci": 1576,
      "ĠCo": 1577,
      "ention": 1578,
      "min": 1579,
      "Ġsingle": 1580,
      "iety": 1581,
      "ĠChrist": 1582,
      "ott": 1583,
      "urther": 1584,
      "ething": 1585,
      "eb": 1586,
      "Ġbased": 1587,
      "Ġthings": 1588,
      "Ġlaw": 1589,
      "hor": 1590,
      "Ġchang": 1591,
      "Ġinvest": 1592,
      "...": 1593,
      "Ġrese": 1594,
      "ration": 1595,
      "Ġhum": 1596,
      "Ġmembers": 1597,
      "Ġcharacter": 1598,
      "Ġhouse": 1599,
      "Ġroom": 1600,
      "Ġtry": 1601,
      "Ġmaking": 1602,
      "Ġ30": 1603,
      "Ġaccess": 1604,
      "Ġship": 1605,
      "Ġport": 1606,
      "Ġgive": 1607,
      "Ġbegan": 1608,
      "Ġmight": 1609,
      "ope": 1610,
      "ĠCar": 1611,
      "ians": 1612,
      "ider": 1613,
      "ably": 1614,
      "par": 1615,
      "ĠBr": 1616,
      "Ġbeh": 1617,
      "lease": 1618,
      "Ġside": 1619,
      "Ġes": 1620,
      "rodu": 1621,
      "Ġhaving": 1622,
      "itive": 1623,
      "Ġpar": 1624,
      "Ġhard": 1625,
      "Ġintern": 1626,
      "ances": 1627,
      "ories": 1628,
      "Ġchildren": 1629,
      "Ġprofess": 1630,
      "tal": 1631,
      "Ġstory": 1632,
      "Ġcomplete": 1633,
      "alf": 1634,
      "ead": 1635,
      "Ġwar": 1636,
      "yl": 1637,
      "Ġpract": 1638,
      "Ġbas": 1639,
      "Ġreleased": 1640,
      "Ġmeet": 1641,
      "Ġdescrib": 1642,
      "Ġ13": 1643,
      "Ġphot": 1644,
      "Ġwebs": 1645,
      "Ġworking": 1646,
      "ĠWorld": 1647,
      "ĠWhen": 1648,
      "Ġcamp": 1649,
      "ote": 1650,
      "Ġsure": 1651,
      "iron": 1652,
      "Ġbig": 1653,
      "Ġbecome": 1654,
      "Ġmove": 1655,
      "Ġfive": 1656,
      "ream": 1657,
      "Ġdue": 1658,
      "yle": 1659,
      "ĠWar": 1660,
      "Ġsomething": 1661,
      "sh": 1662,
      "Ġonline": 1663,
      "here": 1664,
      "Ġtrad": 1665,
      "ample": 1666,
      "Ġtem": 1667,
      "Ġlot": 1668,
      "aterial": 1669,
      "Ġwon": 1670,
      "iting": 1671,
      "ĠSo": 1672,
      "lect": 1673,
      "Ã©": 1674,
      "ĠJu": 1675,
      "Ġwom": 1676,
      "Ġ14": 1677,
      "iod": 1678,
      "Ġsix": 1679,
      "oor": 1680,
      "ĠStates": 1681,
      "Ġimpro": 1682,
      "ched": 1683,
      "Ġcond": 1684,
      "Ġtimes": 1685,
      "ĠNorth": 1686,
      "ients": 1687,
      "ides": 1688,
      "ization": 1689,
      "Ġaway": 1690,
      "Ġreceived": 1691,
      "Ġattack": 1692,
      "ush": 1693,
      "Ġvideo": 1694,
      "joy": 1695,
      "Ġinclude": 1696,
      "ript": 1697,
      "ĠMan": 1698,
      "Ġrepl": 1699,
      "Ġ197": 1700,
      "Ġactiv": 1701,
      "Ġproject": 1702,
      "ify": 1703,
      "ems": 1704,
      "ĠGu": 1705,
      "sc": 1706,
      "augh": 1707,
      "Ġla": 1708,
      "Ġgovernment": 1709,
      "Ġquality": 1710,
      "mb": 1711,
      "ising": 1712,
      "ptember": 1713,
      "Ġcontrol": 1714,
      "utes": 1715,
      "ills": 1716,
      "Ġindust": 1717,
      "Ġwind": 1718,
      "ination": 1719,
      "ids": 1720,
      "ries": 1721,
      "Ġask": 1722,
      "Ġ194": 1723,
      "ĠCent": 1724,
      "ĠGerm": 1725,
      "ilar": 1726,
      "Ġdev": 1727,
      "ograph": 1728,
      "Ġmen": 1729,
      "If": 1730,
      "ĠWith": 1731,
      "Ġtoget": 1732,
      "Ġtogether": 1733,
      "ump": 1734,
      "pping": 1735,
      "ortun": 1736,
      "Ġconne": 1737,
      "inc": 1738,
      "ĠAustral": 1739,
      "Ġ[": 1740,
      "ulation": 1741,
      "ĠEuro": 1742,
      "Ġcreat": 1743,
      "Ġemploy": 1744,
      "omm": 1745,
      "ĠAug": 1746,
      "ĠFl": 1747,
      "atic": 1748,
      "Ġlow": 1749,
      "aken": 1750,
      "Ġepisode": 1751,
      "pril": 1752,
      "Ġsw": 1753,
      "fer": 1754,
      "Ġcase": 1755,
      "ĠYork": 1756,
      "ĠSeptember": 1757,
      "idge": 1758,
      "Ġpain": 1759,
      "hest": 1760,
      "30": 1761,
      "ball": 1762,
      "de": 1763,
      "aff": 1764,
      "Ġi": 1765,
      "ĠJan": 1766,
      "idd": 1767,
      "Ġ196": 1768,
      "ique": 1769,
      "ĠÂ": 1770,
      "Ġce": 1771,
      "ĠOct": 1772,
      "Ġband": 1773,
      "amed": 1774,
      "ividual": 1775,
      "br": 1776,
      "ai": 1777,
      "ĠX": 1778,
      "ape": 1779,
      "ability": 1780,
      "Ġlim": 1781,
      "Ġgot": 1782,
      "arent": 1783,
      "Ġmaterial": 1784,
      "ĠUniversity": 1785,
      "ĠThese": 1786,
      "aced": 1787,
      "Ġthird": 1788,
      "Ġdevelopment": 1789,
      "Ġinvol": 1790,
      "On": 1791,
      "ĠSte": 1792,
      "ĠTo": 1793,
      "ĠGo": 1794,
      "Ġchange": 1795,
      "Ġelect": 1796,
      "Ġdra": 1797,
      "Ġfore": 1798,
      "Ġfood": 1799,
      "Ġpossible": 1800,
      "Ġcame": 1801,
      "Ġdirect": 1802,
      "fect": 1803,
      "Ġoffer": 1804,
      "ocus": 1805,
      "ĠAugust": 1806,
      "Ġperiod": 1807,
      "ister": 1808,
      "Ġfinal": 1809,
      "Ġhig": 1810,
      "Ġdam": 1811,
      "Ġnight": 1812,
      "Ġgames": 1813,
      "ĠBritish": 1814,
      "apan": 1815,
      "ĠApril": 1816,
      "aper": 1817,
      "agement": 1818,
      "resent": 1819,
      "aining": 1820,
      "Ġacross": 1821,
      "ency": 1822,
      "Ġste": 1823,
      "hern": 1824,
      "Ġstudents": 1825,
      "ĠSu": 1826,
      "Ġparticular": 1827,
      "ĠNo": 1828,
      "Ġcomb": 1829,
      "Ġworks": 1830,
      "ones": 1831,
      "Ġapplic": 1832,
      "Ġcompet": 1833,
      "Ġmoney": 1834,
      "Ġtru": 1835,
      "empt": 1836,
      "Ġcourse": 1837,
      "icle": 1838,
      "Ġincluded": 1839,
      "ĠPr": 1840,
      "Ġnon": 1841,
      "Ġjob": 1842,
      "ches": 1843,
      "aring": 1844,
      "Ġbody": 1845,
      "ĠSouth": 1846,
      "Ġtour": 1847,
      "Ġcountry": 1848,
      "uck": 1849,
      "Ġmult": 1850,
      "Ġdeb": 1851,
      "Ġaccount": 1852,
      "illed": 1853,
      "cing": 1854,
      "Ġfav": 1855,
      "Ġindividual": 1856,
      "ĠEurope": 1857,
      "Ġenjoy": 1858,
      "Ġfurther": 1859,
      "uary": 1860,
      "Ġprevious": 1861,
      "ither": 1862,
      "pecial": 1863,
      "ges": 1864,
      "ruction": 1865,
      "ĠMc": 1866,
      "Ġstrong": 1867,
      "Ġamong": 1868,
      "oll": 1869,
      "ĠBro": 1870,
      "Ġtoday": 1871,
      "ument": 1872,
      "osp": 1873,
      "Ġtreat": 1874,
      "Ġword": 1875,
      "ĠOctober": 1876,
      "Ġclaim": 1877,
      "ĠGe": 1878,
      "Ġmag": 1879,
      "Ġwebsite": 1880,
      "most": 1881,
      "rap": 1882,
      "Ġjo": 1883,
      "ops": 1884,
      "load": 1885,
      "over": 1886,
      "irc": 1887,
      "Ġ100": 1888,
      "ided": 1889,
      "ox": 1890,
      "Ġsound": 1891,
      "ĠJune": 1892,
      "ĠRes": 1893,
      "ĠHar": 1894,
      "urch": 1895,
      "St": 1896,
      "ĠJuly": 1897,
      "Ġant": 1898,
      "Ġlive": 1899,
      "ĠEd": 1900,
      "room": 1901,
      "Ġpot": 1902,
      "Ġgiven": 1903,
      "Ġproducts": 1904,
      "play": 1905,
      "na": 1906,
      "Ġtre": 1907,
      "Ġpast": 1908,
      "Ġinit": 1909,
      "Ġtit": 1910,
      "ĠJapan": 1911,
      "ensive": 1912,
      "ĠMarch": 1913,
      "Ġcover": 1914,
      "aged": 1915,
      ".,": 1916,
      "Ġhowever": 1917,
      "err": 1918,
      "Ġunderstand": 1919,
      "Ġbuilding": 1920,
      "fic": 1921,
      "Ġquick": 1922,
      "Ġdem": 1923,
      "Ġlearn": 1924,
      "ese": 1925,
      "Ġperformance": 1926,
      "Ġdetail": 1927,
      "ĠWill": 1928,
      "Ġredu": 1929,
      "Ġvisit": 1930,
      "lu": 1931,
      "Ġprop": 1932,
      "ovember": 1933,
      "Ġlooking": 1934,
      "ĠBy": 1935,
      "You": 1936,
      "Ġbuy": 1937,
      "Ġfocus": 1938,
      "rew": 1939,
      "Ġclose": 1940,
      "Ġdefe": 1941,
      "Ġyoung": 1942,
      "Ġcreate": 1943,
      "reet": 1944,
      "conom": 1945,
      "Ġcommunity": 1946,
      "ung": 1947,
      "oon": 1948,
      "Ġident": 1949,
      "ER": 1950,
      "Ġothers": 1951,
      "wh": 1952,
      "Ġhold": 1953,
      "avy": 1954,
      "ony": 1955,
      "Ġtw": 1956,
      "Ġspecific": 1957,
      "for": 1958,
      "Ġdr": 1959,
      "elt": 1960,
      "Ġoriginal": 1961,
      "uture": 1962,
      "ĠKing": 1963,
      "Ġcontact": 1964,
      "As": 1965,
      "Ġpersonal": 1966,
      "ached": 1967,
      "Ġposition": 1968,
      "Ġpress": 1969,
      "Ġbuilt": 1970,
      "ex": 1971,
      "Ġhistory": 1972,
      "Ġsugg": 1973,
      "Ġsuggest": 1974,
      "ĠNovember": 1975,
      "urs": 1976,
      "Ġrange": 1977,
      "11": 1978,
      "Ġsum": 1979,
      "Ġfield": 1980,
      "Ġnet": 1981,
      "ler": 1982,
      "Ġrole": 1983,
      "ried": 1984,
      "Ġneeds": 1985,
      "Ġeasy": 1986,
      "Ġbegin": 1987,
      "ready": 1988,
      "Ġbene": 1989,
      "Ġexample": 1990,
      "app": 1991,
      "Ġsimilar": 1992,
      "Ġtyp": 1993,
      "ĠEn": 1994,
      "Ġstarted": 1995,
      "Ġenough": 1996,
      "ĠAm": 1997,
      "val": 1998,
      "Ġfeatures": 1999,
      "Ġresearch": 2000,
      "Ġcou": 2001,
      "Ġfund": 2002,
      "Ġmatch": 2003,
      "Ġestab": 2004,
      "ĠThat": 2005,
      "Ġcommon": 2006,
      "Ġmonths": 2007,
      "Ġonce": 2008,
      "ĠOne": 2009,
      "Ġheld": 2010,
      "ateg": 2011,
      "yn": 2012,
      "ĠMus": 2013,
      "Ġvol": 2014,
      "Ġsocial": 2015,
      "ĠGod": 2016,
      "ference": 2017,
      "ĠNational": 2018,
      "18": 2019,
      "Ġever": 2020,
      "ows": 2021,
      "anks": 2022,
      "Ġwent": 2023,
      "viron": 2024,
      "Ġdeath": 2025,
      "Ġkind": 2026,
      "ĠCity": 2027,
      "Ġ24": 2028,
      "cember": 2029,
      "rote": 2030,
      "Ġsuper": 2031,
      "ĠJanuary": 2032,
      "ille": 2033,
      "ague": 2034,
      "ĠComp": 2035,
      "Ġmakes": 2036,
      "12": 2037,
      "Ġeduc": 2038,
      "Ġcaus": 2039,
      "Ġdone": 2040,
      "Ġcut": 2041,
      "Ġ25": 2042,
      "Ġfre": 2043,
      "ĠHis": 2044,
      "Ġvarious": 2045,
      "Ġroad": 2046,
      "Ġproduct": 2047,
      "ĠComm": 2048,
      "mp": 2049,
      "Ġdest": 2050,
      "orts": 2051,
      "Ġfar": 2052,
      "cer": 2053,
      "ino": 2054,
      "Ġtrack": 2055,
      "Ġenc": 2056,
      "af": 2057,
      "Ġleast": 2058,
      "ĠMy": 2059,
      "aly": 2060,
      "Ġthought": 2061,
      "Ġdeal": 2062,
      "Ġcertain": 2063,
      "Ġareas": 2064,
      "irm": 2065,
      "Ġrelations": 2066,
      "Ġalready": 2067,
      "Ġsent": 2068,
      "Ġplayed": 2069,
      "Ġversion": 2070,
      "sel": 2071,
      "Ġpolit": 2072,
      "Ġspace": 2073,
      "Ġnorth": 2074,
      "oring": 2075,
      "Ġcheck": 2076,
      "ĠDecember": 2077,
      "ĠMin": 2078,
      "Ġmot": 2079,
      "Ġbeaut": 2080,
      "ĠIntern": 2081,
      "Ġlate": 2082,
      "Ġauthor": 2083,
      "Ġcult": 2084,
      "Ġattempt": 2085,
      "Ġaud": 2086,
      "irl": 2087,
      "ask": 2088,
      "ethod": 2089,
      "Ġhalf": 2090,
      "ĠCount": 2091,
      "elling": 2092,
      "ogn": 2093,
      "idence": 2094,
      "Ġmeans": 2095,
      "Ġrequire": 2096,
      "Ġpopular": 2097,
      "Ġbar": 2098,
      "Ġstudy": 2099,
      "Ġtown": 2100,
      "aps": 2101,
      "Ġhours": 2102,
      "abor": 2103,
      "Ġsignific": 2104,
      "iment": 2105,
      "Ġfront": 2106,
      "ĠâĢĺ": 2107,
      "Ġwr": 2108,
      "Ġfuture": 2109,
      "ift": 2110,
      "Ġseen": 2111,
      "Ġens": 2112,
      "pper": 2113,
      "Ġopportun": 2114,
      "eter": 2115,
      "Ġpriv": 2116,
      "Ġfail": 2117,
      "Ġproduction": 2118,
      "Ġwhy": 2119,
      "Ġfire": 2120,
      "overed": 2121,
      "ring": 2122,
      "ĠNe": 2123,
      "Ġpurch": 2124,
      "Ġsour": 2125,
      "ĠSy": 2126,
      "Ġofficial": 2127,
      "Ġcompan": 2128,
      "Ġkm": 2129,
      "jects": 2130,
      "Ġkey": 2131,
      "!!": 2132,
      "Ġsoft": 2133,
      ",\"": 2134,
      "artment": 2135,
      "Ġannoun": 2136,
      "ilities": 2137,
      "Ġrelease": 2138,
      "ĠFeb": 2139,
      "Ġlo": 2140,
      "Ġrespons": 2141,
      "aving": 2142,
      "Ġmean": 2143,
      "ĠDes": 2144,
      "Ġrepresent": 2145,
      "ee": 2146,
      "ĠCal": 2147,
      "Ġz": 2148,
      "Ġblack": 2149,
      "ĠMed": 2150,
      "now": 2151,
      "Ġfoot": 2152,
      "asing": 2153,
      "Ġclear": 2154,
      "cell": 2155,
      "Ġperfect": 2156,
      "Ġhot": 2157,
      "Ġminutes": 2158,
      "ĠPar": 2159,
      "ison": 2160,
      "Ġage": 2161,
      "Ġtotal": 2162,
      "rict": 2163,
      "acy": 2164,
      "Ġinstall": 2165,
      "Ġcapt": 2166,
      "Ġentire": 2167,
      "ĠBar": 2168,
      "Ġabove": 2169,
      "Ġsold": 2170,
      "Ġpie": 2171,
      "ĠRep": 2172,
      "ĠPark": 2173,
      "Ġled": 2174,
      "uted": 2175,
      "ĠII": 2176,
      "Ġcomes": 2177,
      "ham": 2178,
      "chie": 2179,
      "atural": 2180,
      "ĠAss": 2181,
      "Ġarri": 2182,
      "ruary": 2183,
      "Ġtraining": 2184,
      "'re": 2185,
      "Ġprice": 2186,
      "ĠWest": 2187,
      "ators": 2188,
      "Ġnews": 2189,
      "utions": 2190,
      "vironment": 2191,
      "ray": 2192,
      "idered": 2193,
      "Ġbelow": 2194,
      "Ġdescribed": 2195,
      "gest": 2196,
      "Ġwide": 2197,
      "rie": 2198,
      "Ġpage": 2199,
      "Ġthing": 2200,
      "Ġcentury": 2201,
      "go": 2202,
      "Ġsouth": 2203,
      "iful": 2204,
      "Ġhy": 2205,
      "rench": 2206,
      "roll": 2207,
      "eral": 2208,
      "aces": 2209,
      "Ġwriting": 2210,
      "ights": 2211,
      "ival": 2212,
      "Ġfriends": 2213,
      "aur": 2214,
      "ibility": 2215,
      "Ġbit": 2216,
      "Ġbreak": 2217,
      "Ġstruct": 2218,
      "ivision": 2219,
      "Ġamount": 2220,
      "Ġparticip": 2221,
      "ĠFebruary": 2222,
      "Ġcreated": 2223,
      "Ġcoun": 2224,
      "Ġbring": 2225,
      "Ġey": 2226,
      "Ġwrote": 2227,
      "Ġtaken": 2228,
      "Ġcareer": 2229,
      "Ġmix": 2230,
      "Ġtax": 2231,
      "alt": 2232,
      "Ġdesigned": 2233,
      "Ġsele": 2234,
      "tt": 2235,
      "Ġprovided": 2236,
      "Ġphys": 2237,
      "Ġindustry": 2238,
      "Ġcoll": 2239,
      "Ġeff": 2240,
      "Ġreason": 2241,
      "Ġappe": 2242,
      "Ġformer": 2243,
      "15": 2244,
      "Ġhost": 2245,
      "Ġrad": 2246,
      "Ġsignificant": 2247,
      "Ġground": 2248,
      "Ġeconom": 2249,
      "Ġmethod": 2250,
      "lev": 2251,
      "urity": 2252,
      "Ġconsidered": 2253,
      "ĠCanad": 2254,
      "Ġanim": 2255,
      "not": 2256,
      "Ġassist": 2257,
      "ners": 2258,
      "ĠInst": 2259,
      "Ġdoc": 2260,
      "Ġlat": 2261,
      "Ġeither": 2262,
      "Ġgen": 2263,
      "oute": 2264,
      "ĠGl": 2265,
      "Ġmind": 2266,
      "ĠEl": 2267,
      "ondon": 2268,
      "Ġri": 2269,
      "Ġadded": 2270,
      "Ġthroughout": 2271,
      "Ġhuman": 2272,
      "ole": 2273,
      "Ġshare": 2274,
      "Ġ2010": 2275,
      "Ġengine": 2276,
      "Ġwomen": 2277,
      "ĠBat": 2278,
      "Ġ50": 2279,
      "Ġdiscuss": 2280,
      "ficult": 2281,
      "ades": 2282,
      "olution": 2283,
      "ĠSm": 2284,
      "Ġwhite": 2285,
      "Ġcred": 2286,
      "uff": 2287,
      "Ġfall": 2288,
      "Ġtravel": 2289,
      "oe": 2290,
      "Ġsuccessful": 2291,
      "Ġnamed": 2292,
      "Ġstep": 2293,
      "omes": 2294,
      "cle": 2295,
      "200": 2296,
      "uf": 2297,
      "Ġwritten": 2298,
      "Ġtaking": 2299,
      "âĢ¦": 2300,
      "omin": 2301,
      "lex": 2302,
      "unch": 2303,
      "umb": 2304,
      "Ch": 2305,
      "Ġalthough": 2306,
      "pite": 2307,
      "pecially": 2308,
      "vert": 2309,
      "ze": 2310,
      "reg": 2311,
      "Ġcompanies": 2312,
      "Ġdifficult": 2313,
      "ĠAir": 2314,
      "Ġstay": 2315,
      "ublic": 2316,
      "Ġtool": 2317,
      "Ġchall": 2318,
      "He": 2319,
      "Ġrequired": 2320,
      "16": 2321,
      "Ġcommand": 2322,
      "Ġexist": 2323,
      "ĠOur": 2324,
      "Ġener": 2325,
      "hers": 2326,
      "Ġmeas": 2327,
      "Ġidea": 2328,
      "Ġred": 2329,
      "Ġstyle": 2330,
      "IN": 2331,
      "Ġcirc": 2332,
      "ili": 2333,
      "ume": 2334,
      "Ġet": 2335,
      "Ġclean": 2336,
      "tain": 2337,
      "Ġlost": 2338,
      "ĠCor": 2339,
      "ification": 2340,
      "ĠEnglish": 2341,
      "There": 2342,
      "Ġrelationship": 2343,
      "aid": 2344,
      "Ġ2011": 2345,
      "isc": 2346,
      "Ġbase": 2347,
      "ells": 2348,
      "Ġprofessional": 2349,
      "'m": 2350,
      "ging": 2351,
      "aching": 2352,
      "Ġprob": 2353,
      "Ġactually": 2354,
      "face": 2355,
      "Ġmor": 2356,
      "Ġcontent": 2357,
      "Ġgetting": 2358,
      "Ġdoing": 2359,
      "ana": 2360,
      "Ġconsider": 2361,
      "Ġinflu": 2362,
      "Ġtype": 2363,
      "Ġyet": 2364,
      "ĠWhat": 2365,
      "Ġcal": 2366,
      "rain": 2367,
      "ĠApp": 2368,
      "Ġintrodu": 2369,
      "Ġwa": 2370,
      "Ġalmost": 2371,
      "sequ": 2372,
      "ĠPer": 2373,
      "Ġess": 2374,
      "Ġtalk": 2375,
      "hel": 2376,
      "Ġsize": 2377,
      "ĠLondon": 2378,
      "Ġpack": 2379,
      "Ġfit": 2380,
      "Ġris": 2381,
      "aign": 2382,
      "Ġstat": 2383,
      "Ġmom": 2384,
      "back": 2385,
      "ster": 2386,
      "angu": 2387,
      "Ġaff": 2388,
      "ĠKe": 2389,
      "era": 2390,
      "Ġarm": 2391,
      "head": 2392,
      "Ġ2012": 2393,
      "14": 2394,
      "Ġgeneral": 2395,
      "ened": 2396,
      "Ġpict": 2397,
      "ĠState": 2398,
      "ancial": 2399,
      "ĠDo": 2400,
      "Ġrecomm": 2401,
      "oved": 2402,
      "Ġmiss": 2403,
      "Ġclub": 2404,
      "ression": 2405,
      "ĠSw": 2406,
      "ĠPe": 2407,
      "Ġord": 2408,
      "aul": 2409,
      "ĠDav": 2410,
      "Ġlocated": 2411,
      "Ġassoci": 2412,
      "Ġbenef": 2413,
      "uation": 2414,
      "âĢľ": 2415,
      "Ġaccept": 2416,
      "Ġmedia": 2417,
      "medi": 2418,
      ",âĢĿ": 2419,
      "ĠSchool": 2420,
      "ĠGeor": 2421,
      "Ġresults": 2422,
      "Ġpoints": 2423,
      "ply": 2424,
      "Ġ2008": 2425,
      "Ġstri": 2426,
      "Ġoffers": 2427,
      "itary": 2428,
      "Ġspecies": 2429,
      "Ġwalk": 2430,
      "Ġrather": 2431,
      "ĠAng": 2432,
      "Ġoffice": 2433,
      "ressed": 2434,
      "istic": 2435,
      "AT": 2436,
      "Ġdou": 2437,
      "An": 2438,
      "Ġwall": 2439,
      "Ġrecommend": 2440,
      "ief": 2441,
      "estern": 2442,
      "Ġmember": 2443,
      "cks": 2444,
      "ĠAb": 2445,
      "Ġvalue": 2446,
      "ground": 2447,
      "itch": 2448,
      "Ġcop": 2449,
      "Ġgun": 2450,
      "For": 2451,
      "icy": 2452,
      "oph": 2453,
      "Ġbed": 2454,
      "Ġaver": 2455,
      "Ġattend": 2456,
      "Ġdi": 2457,
      "Ġstaff": 2458,
      "osing": 2459,
      "Ġpublished": 2460,
      "What": 2461,
      "imate": 2462,
      "Ġpercent": 2463,
      "ĠReg": 2464,
      "ĠHigh": 2465,
      "pected": 2466,
      "Ġobs": 2467,
      "Ġissues": 2468,
      "ites": 2469,
      "ĠChar": 2470,
      "Ġsoon": 2471,
      "Ġevents": 2472,
      "ON": 2473,
      "Ġheart": 2474,
      "ĠQu": 2475,
      "ĠMich": 2476,
      "Ġenvironment": 2477,
      "Ġrecogn": 2478,
      "ĠAf": 2479,
      "Ġcy": 2480,
      "Ġcross": 2481,
      "Ġsearch": 2482,
      "Ġparty": 2483,
      "Ġmodern": 2484,
      "Ġ2009": 2485,
      "Ġimprove": 2486,
      "ĠFrench": 2487,
      "Ġexam": 2488,
      "Ġcommit": 2489,
      "Re": 2490,
      "Ġcomput": 2491,
      "sw": 2492,
      "Ġinitial": 2493,
      "Ġloss": 2494,
      "Ġachie": 2495,
      "ager": 2496,
      "Ġ195": 2497,
      "'ve": 2498,
      "ĠServ": 2499,
      "Ġwanted": 2500,
      "cript": 2501,
      "Ġabs": 2502,
      "Ġsqu": 2503,
      "Ġaction": 2504,
      "Ġprim": 2505,
      "ires": 2506,
      "Ġ21": 2507,
      "Ġbrand": 2508,
      "Ġwhether": 2509,
      "Ġgave": 2510,
      "Ġwhole": 2511,
      "Ġtradition": 2512,
      "cast": 2513,
      "irt": 2514,
      "ĠSec": 2515,
      "When": 2516,
      "Ġ193": 2517,
      "Ġespecially": 2518,
      "ES": 2519,
      "Ġstore": 2520,
      "Ġcontinued": 2521,
      "Ġregular": 2522,
      "ĠGerman": 2523,
      "selves": 2524,
      "Ġflow": 2525,
      "Ġincludes": 2526,
      "Ġdidn": 2527,
      "Ġ40": 2528,
      "iber": 2529,
      "oid": 2530,
      "ledge": 2531,
      "itor": 2532,
      "hib": 2533,
      "itc": 2534,
      "Ġball": 2535,
      "att": 2536,
      "ĠAmerica": 2537,
      "Ġprovides": 2538,
      "time": 2539,
      "reme": 2540,
      "ĠHer": 2541,
      "ĠCont": 2542,
      "17": 2543,
      "ĠWhile": 2544,
      "Ġmach": 2545,
      "AR": 2546,
      "Ġexperien": 2547,
      "fort": 2548,
      "Ġdeterm": 2549,
      "Ġself": 2550,
      "Ġproperty": 2551,
      "Ġdig": 2552,
      "Ġpotential": 2553,
      "Ġhit": 2554,
      "Ġdeveloped": 2555,
      "ĠCounty": 2556,
      "ĠPart": 2557,
      "Ġliving": 2558,
      "Ġbehind": 2559,
      "craft": 2560,
      "25": 2561,
      "Ġregard": 2562,
      "ĠPres": 2563,
      "Ġtechnology": 2564,
      "Ġreported": 2565,
      "AN": 2566,
      "Ġenergy": 2567,
      "ĠAg": 2568,
      "clus": 2569,
      "ĠBo": 2570,
      "âĢĶ": 2571,
      "ĠAcc": 2572,
      "Ġparent": 2573,
      "Ġnational": 2574,
      "Ġdownload": 2575,
      "Ġupon": 2576,
      "Ġinsp": 2577,
      "Ġsimple": 2578,
      "hing": 2579,
      "off": 2580,
      "ĠRiver": 2581,
      "ental": 2582,
      "Ġweeks": 2583,
      "Ġmoved": 2584,
      "Ġface": 2585,
      "Ġneeded": 2586,
      "ming": 2587,
      "ĠWilliam": 2588,
      "Ġmess": 2589,
      "imately": 2590,
      "li": 2591,
      "ceed": 2592,
      "Ġ2013": 2593,
      "Ġplayer": 2594,
      "ĠSer": 2595,
      "etimes": 2596,
      "Ġoutside": 2597,
      "Ġextra": 2598,
      "Ġlay": 2599,
      "bor": 2600,
      "ampions": 2601,
      "Ġcampaign": 2602,
      "dom": 2603,
      "Ġmanagement": 2604,
      "Ġfavor": 2605,
      "Ġmid": 2606,
      "13": 2607,
      "Ġeffective": 2608,
      "ening": 2609,
      "ĠGr": 2610,
      "ae": 2611,
      "Ġvict": 2612,
      "ception": 2613,
      "like": 2614,
      "inally": 2615,
      "iol": 2616,
      "Ġbeautiful": 2617,
      "Ġeverything": 2618,
      "ips": 2619,
      "Ġworked": 2620,
      "Ġissue": 2621,
      "Ġoil": 2622,
      "Ġarch": 2623,
      "Ġten": 2624,
      "Ġnecess": 2625,
      "Ġinn": 2626,
      "omp": 2627,
      "aging": 2628,
      "pective": 2629,
      "Ġinstead": 2630,
      "oman": 2631,
      "ky": 2632,
      "Ġprint": 2633,
      "ourn": 2634,
      "Ġexc": 2635,
      "Ġadditional": 2636,
      "Ġ22": 2637,
      "ĠTra": 2638,
      "astic": 2639,
      "Ġneg": 2640,
      "Ġround": 2641,
      "Ġwood": 2642,
      "'ll": 2643,
      "Ġdecided": 2644,
      "Ġfelt": 2645,
      "nding": 2646,
      "urance": 2647,
      "Ġtable": 2648,
      "ufact": 2649,
      "lement": 2650,
      "ford": 2651,
      "Ġhon": 2652,
      "Ġsat": 2653,
      "Ġsepar": 2654,
      "Ġdecl": 2655,
      "cil": 2656,
      "Ġ2014": 2657,
      "Ġap": 2658,
      "Ġlikely": 2659,
      "epend": 2660,
      "Ġcustomers": 2661,
      "ĠEngland": 2662,
      "Ġ2015": 2663,
      "ological": 2664,
      "book": 2665,
      "aves": 2666,
      "iple": 2667,
      "iddle": 2668,
      "Ġindic": 2669,
      "lier": 2670,
      "Ġrequest": 2671,
      "ĠChe": 2672,
      "Ġquestion": 2673,
      "iday": 2674,
      "Ġinj": 2675,
      "Ġill": 2676,
      "mercial": 2677,
      "ington": 2678,
      "Ġcard": 2679,
      "Ġusually": 2680,
      "Ġnatural": 2681,
      "Ġproblems": 2682,
      "urg": 2683,
      "ĠEar": 2684,
      "Ġchanges": 2685,
      "wood": 2686,
      "Ġquestions": 2687,
      "Ġlog": 2688,
      "year": 2689,
      "Ġdoesn": 2690,
      "Ġunique": 2691,
      "Ġagree": 2692,
      "Ġfig": 2693,
      "minist": 2694,
      "ĠHouse": 2695,
      "Ġ2007": 2696,
      "ĠGener": 2697,
      "Ġgoal": 2698,
      "uk": 2699,
      "Ġrev": 2700,
      "Ġveh": 2701,
      "rown": 2702,
      "Ġcontrib": 2703,
      "Ġfunction": 2704,
      "Ġforward": 2705,
      "ĠDuring": 2706,
      "60": 2707,
      "ought": 2708,
      "obile": 2709,
      "After": 2710,
      "roy": 2711,
      "ĠSome": 2712,
      "Ġplayers": 2713,
      "Ġmass": 2714,
      "Ġleading": 2715,
      "Ġproduced": 2716,
      "Ġful": 2717,
      "Ġhistor": 2718,
      "oura": 2719,
      "Ġgra": 2720,
      "Ġsaw": 2721,
      "Ġpick": 2722,
      "Ġtitle": 2723,
      "new": 2724,
      "Ġfinancial": 2725,
      "Ġsays": 2726,
      "ĠPol": 2727,
      "Ġtold": 2728,
      "anced": 2729,
      "AS": 2730,
      "Ġnetwork": 2731,
      "Ġweb": 2732,
      "Ġmodel": 2733,
      "Ġbox": 2734,
      "Ġbroad": 2735,
      "Ġcharacters": 2736,
      "ĠColle": 2737,
      "lin": 2738,
      "ules": 2739,
      "Ġupd": 2740,
      "Ġ23": 2741,
      "erc": 2742,
      "action": 2743,
      "Ġtakes": 2744,
      "Ġplat": 2745,
      "Ġpositive": 2746,
      "Ġhigher": 2747,
      "Ġdate": 2748,
      "Ġquickly": 2749,
      "Ġinvolved": 2750,
      "Ġaccording": 2751,
      "Ġgrad": 2752,
      "Ġincrease": 2753,
      "ĠStud": 2754,
      "airs": 2755,
      "Ġprior": 2756,
      "icro": 2757,
      "Ġemail": 2758,
      "Ġconsist": 2759,
      "Ġhimself": 2760,
      "ength": 2761,
      "Ġcast": 2762,
      "Ġquite": 2763,
      "Ġlonger": 2764,
      "ises": 2765,
      "ĠRuss": 2766,
      "Ġsimply": 2767,
      "Ġbelieve": 2768,
      "atory": 2769,
      "Al": 2770,
      "Ġaffe": 2771,
      "Ġtou": 2772,
      "board": 2773,
      "ĠAustralia": 2774,
      "onder": 2775,
      "Ġshows": 2776,
      "Ġlower": 2777,
      "Ġaverage": 2778,
      "Ġtar": 2779,
      "urb": 2780,
      "Ġrunning": 2781,
      "Ġfather": 2782,
      "Ġmount": 2783,
      "rought": 2784,
      "Ġconstruction": 2785,
      "Ġspeed": 2786,
      "adem": 2787,
      "lying": 2788,
      "Ġprobably": 2789,
      "Ġfast": 2790,
      "Ġblog": 2791,
      "uge": 2792,
      "ables": 2793,
      "Ġpromot": 2794,
      "Ġannounced": 2795,
      "Ġparts": 2796,
      "Ġplaying": 2797,
      "ara": 2798,
      "Ġimpact": 2799,
      "Ġpurp": 2800,
      "Ġconcern": 2801,
      "Ġhope": 2802,
      "Ġstorm": 2803,
      "imum": 2804,
      "Ġcontract": 2805,
      "Ġlangu": 2806,
      "resh": 2807,
      "Ġemb": 2808,
      "How": 2809,
      "Ġpolitical": 2810,
      "Ġsystems": 2811,
      "ĠAfric": 2812,
      "Ġgre": 2813,
      "ĠDep": 2814,
      "Ġwatch": 2815,
      "Ġseem": 2816,
      "Ġtext": 2817,
      "oice": 2818,
      "Ġbad": 2819,
      "ety": 2820,
      "Ġrate": 2821,
      "Ġaddress": 2822,
      "come": 2823,
      "dd": 2824,
      "Ġpred": 2825,
      "ĠUK": 2826,
      "aker": 2827,
      "Ġsomeone": 2828,
      "ĠMon": 2829,
      "iction": 2830,
      "Ġforce": 2831,
      "Ġpaper": 2832,
      "lands": 2833,
      "ĠEm": 2834,
      "ples": 2835,
      "Ġsales": 2836,
      "ĠSim": 2837,
      "Ġcommunic": 2838,
      "Ġimmedi": 2839,
      "Ġtowards": 2840,
      "su": 2841,
      "ibr": 2842,
      "Ġvia": 2843,
      "ude": 2844,
      "Ġplease": 2845,
      "unk": 2846,
      "ĠVal": 2847,
      "uel": 2848,
      "Ġaward": 2849,
      "Ġson": 2850,
      "oud": 2851,
      "ands": 2852,
      "oyal": 2853,
      "Ġfeet": 2854,
      "Ġeducation": 2855,
      "aily": 2856,
      "ica": 2857,
      "Ġprevent": 2858,
      "Ġreturned": 2859,
      "Ġcolor": 2860,
      "Ġfollowed": 2861,
      "izing": 2862,
      "erous": 2863,
      "Ġ2018": 2864,
      "Ġlink": 2865,
      "80": 2866,
      "ĠJapanese": 2867,
      "omb": 2868,
      "Ġnorm": 2869,
      "Ġ,": 2870,
      "Ġscreen": 2871,
      "Ġprivate": 2872,
      "iation": 2873,
      "where": 2874,
      "Ġreve": 2875,
      "Ġeffect": 2876,
      "ael": 2877,
      "Ġstated": 2878,
      "Ġchart": 2879,
      "Ġfight": 2880,
      "ald": 2881,
      "Ġensure": 2882,
      "field": 2883,
      "ĠSan": 2884,
      "Ġprep": 2885,
      "Ġpers": 2886,
      "Ġdepend": 2887,
      "ĠMark": 2888,
      "Ġitself": 2889,
      "Ġperformed": 2890,
      "Ġrace": 2891,
      "Ġcomment": 2892,
      "ama": 2893,
      "ĠDon": 2894,
      "Ġoccur": 2895,
      "Ġcontinue": 2896,
      "alys": 2897,
      "Ġdecision": 2898,
      "Ġideas": 2899,
      "Ġsil": 2900,
      "Ġstage": 2901,
      "Ġleave": 2902,
      "rs": 2903,
      "Ġfem": 2904,
      "Ġinternational": 2905,
      "ĠRed": 2906,
      "ĠYour": 2907,
      "Ġsummer": 2908,
      "Ġdraw": 2909,
      "Ġdeg": 2910,
      "Ġcondu": 2911,
      "Ġdamage": 2912,
      "ĠStreet": 2913,
      "Ġpractice": 2914,
      "Ġpric": 2915,
      "Ġdisplay": 2916,
      "iff": 2917,
      "ĠNot": 2918,
      "onse": 2919,
      "Ġlear": 2920,
      "Ġrelated": 2921,
      "ĠAct": 2922,
      "Ġresour": 2923,
      "Ġ27": 2924,
      "ees": 2925,
      "Ġter": 2926,
      "Ġknowledge": 2927,
      "ĠEast": 2928,
      "sy": 2929,
      "Ġlocation": 2930,
      "Ġlack": 2931,
      "reng": 2932,
      "Ġmother": 2933,
      "Ġsection": 2934,
      "40": 2935,
      "nded": 2936,
      "used": 2937,
      "erve": 2938,
      "ension": 2939,
      "ĠInternational": 2940,
      "Ġrock": 2941,
      "OR": 2942,
      "iring": 2943,
      "Ġ2016": 2944,
      "Ġcat": 2945,
      "Ġarg": 2946,
      "Ġ2006": 2947,
      "Ġvariety": 2948,
      "ett": 2949,
      "ĠDr": 2950,
      "ĠJust": 2951,
      "icles": 2952,
      "use": 2953,
      "Ġways": 2954,
      "Ġmanufact": 2955,
      "ellow": 2956,
      "Ġregion": 2957,
      "Ġsongs": 2958,
      "Ġstar": 2959,
      "odes": 2960,
      "Ġserved": 2961,
      "anch": 2962,
      "Ġinside": 2963,
      "Ġexec": 2964,
      "Ġcompleted": 2965,
      "levision": 2966,
      "ipment": 2967,
      "AC": 2968,
      "Ġchoose": 2969,
      "oes": 2970,
      "Ġestablished": 2971,
      "ding": 2972,
      "Ġreceive": 2973,
      "oming": 2974,
      "Ġstandard": 2975,
      "fficient": 2976,
      "Ġpan": 2977,
      "Ġstation": 2978,
      "Ġcommercial": 2979,
      "ropical": 2980,
      "ule": 2981,
      "inn": 2982,
      "Ġlab": 2983,
      "Ġtreatment": 2984,
      "rec": 2985,
      "ĠMor": 2986,
      "str": 2987,
      "rug": 2988,
      "Ġbi": 2989,
      "ux": 2990,
      "ĠSoc": 2991,
      "At": 2992,
      "Ġmilitary": 2993,
      "Ġasked": 2994,
      "ampionship": 2995,
      "Ġsecurity": 2996,
      "Ġanything": 2997,
      "ishing": 2998,
      "Ġcoming": 2999,
      "Ġeight": 3000,
      "Ġsoftware": 3001,
      "Ġhor": 3002,
      "Ġeveryone": 3003,
      "Ġ28": 3004,
      "Ġconditions": 3005,
      "Ġpark": 3006,
      "atur": 3007,
      "Ġbattle": 3008,
      "Ġeast": 3009,
      "ĠAlthough": 3010,
      "Ġdied": 3011,
      "ek": 3012,
      "Ġreached": 3013,
      "Ġut": 3014,
      "Ġconsum": 3015,
      "Ġgroups": 3016,
      "ession": 3017,
      "Ġforces": 3018,
      "Ġelse": 3019,
      "ĠBlack": 3020,
      "Ġstra": 3021,
      "Ġcourt": 3022,
      "outhern": 3023,
      "Ġbur": 3024,
      "Ġrecorded": 3025,
      "Ġleaders": 3026,
      "pro": 3027,
      "illing": 3028,
      "Ġmiles": 3029,
      "Ġcook": 3030,
      "ari": 3031,
      "Ġtarget": 3032,
      "Ġability": 3033,
      "ography": 3034,
      "Ġdeep": 3035,
      "Ġslow": 3036,
      "To": 3037,
      "rel": 3038,
      "oke": 3039,
      "Ġopportunity": 3040,
      "fully": 3041,
      "ĠCenter": 3042,
      "Ġterms": 3043,
      "Ġtrying": 3044,
      "Ġbrought": 3045,
      "Ġcurrently": 3046,
      "Ġcele": 3047,
      "obal": 3048,
      "Ġbooks": 3049,
      "Ġ26": 3050,
      "Ġdetails": 3051,
      "che": 3052,
      "Ġautom": 3053,
      "Ġwest": 3054,
      "ha": 3055,
      "ĠJames": 3056,
      "azing": 3057,
      "ville": 3058,
      "ww": 3059,
      "Ġplans": 3060,
      "aches": 3061,
      "osition": 3062,
      "Ġimage": 3063,
      "Ġextend": 3064,
      "Ġcustomer": 3065,
      "Ġcause": 3066,
      "ĠPresident": 3067,
      "Ġstru": 3068,
      "ords": 3069,
      "ĠJack": 3070,
      "Ġscore": 3071,
      "Ġwords": 3072,
      "Ġsle": 3073,
      "ĠIndian": 3074,
      "Ġsurv": 3075,
      "Ġoptions": 3076,
      "Ġboard": 3077,
      "ma": 3078,
      "Ġexpect": 3079,
      "AL": 3080,
      "asons": 3081,
      "based": 3082,
      "Ġ192": 3083,
      "Ġago": 3084,
      "ED": 3085,
      "ĠCour": 3086,
      "ament": 3087,
      "Ġseven": 3088,
      "ĠDay": 3089,
      "irth": 3090,
      "ĠAssoci": 3091,
      "Ġgold": 3092,
      "ĠArt": 3093,
      "orks": 3094,
      "Ġmatter": 3095,
      "reed": 3096,
      "ĠGeneral": 3097,
      "ĠArmy": 3098,
      "Ġdefin": 3099,
      "ault": 3100,
      "Ġpopulation": 3101,
      "Ġearn": 3102,
      "IS": 3103,
      "Ġthemselves": 3104,
      "Ġtrue": 3105,
      "Ġsafe": 3106,
      "Ġqual": 3107,
      "Ġcenter": 3108,
      "Ġhol": 3109,
      "Ġansw": 3110,
      "Ġdestroy": 3111,
      "Ġactive": 3112,
      "Ġactivities": 3113,
      "amb": 3114,
      "uments": 3115,
      "Ġphone": 3116,
      "Ġcand": 3117,
      "itation": 3118,
      "Ġcannot": 3119,
      "Ġapproach": 3120,
      "ĠPat": 3121,
      "ĠEuropean": 3122,
      "ĠIm": 3123,
      "Ġready": 3124,
      "Ġrisk": 3125,
      "iforn": 3126,
      "ivil": 3127,
      "ĠAc": 3128,
      "Ġstreng": 3129,
      "hold": 3130,
      "Ġcas": 3131,
      "Ġappoint": 3132,
      "orthern": 3133,
      "Ġfirm": 3134,
      "key": 3135,
      "Ġemer": 3136,
      "ĠBu": 3137,
      "Ġallowed": 3138,
      "Ġcomplex": 3139,
      "Ġcomfort": 3140,
      "Ġarr": 3141,
      "Ġprot": 3142,
      "mas": 3143,
      "ests": 3144,
      "Ġapplication": 3145,
      "Ðµ": 3146,
      "Ġcountries": 3147,
      "Ġgrowth": 3148,
      "igned": 3149,
      "Ġvill": 3150,
      "ĠPort": 3151,
      "enty": 3152,
      "Ġchoice": 3153,
      "ĠDavid": 3154,
      "Ġimm": 3155,
      "Ġlearning": 3156,
      "Ġsal": 3157,
      "Ġincreased": 3158,
      "Ġrecent": 3159,
      "ĠIndia": 3160,
      "Ġlimited": 3161,
      "Ġlength": 3162,
      "ĠWash": 3163,
      "Ġplant": 3164,
      "Ġprem": 3165,
      "light": 3166,
      "Ġcam": 3167,
      "ovel": 3168,
      "ĠRec": 3169,
      "Ġtell": 3170,
      "Ġgirl": 3171,
      "arily": 3172,
      "Ġsche": 3173,
      "Ġheavy": 3174,
      "Ġple": 3175,
      "Ġresponse": 3176,
      "nds": 3177,
      "tty": 3178,
      "ences": 3179,
      "oses": 3180,
      "iding": 3181,
      "ĠRoad": 3182,
      "nes": 3183,
      "rack": 3184,
      "ĠSch": 3185,
      "itchen": 3186,
      "oul": 3187,
      "Ġgenerally": 3188,
      "Ġparticularly": 3189,
      "ĠGreat": 3190,
      "ournal": 3191,
      "Ġlevels": 3192,
      "Ġweight": 3193,
      "Ġinterview": 3194,
      "Ġmeeting": 3195,
      "Ġeasily": 3196,
      "Ġdrive": 3197,
      "Ġetc": 3198,
      "Ġsubject": 3199,
      "itution": 3200,
      "Ġstop": 3201,
      "Ġyourself": 3202,
      "itar": 3203,
      "utive": 3204,
      "Ġnoted": 3205,
      "Ġcaused": 3206,
      "ĠJe": 3207,
      "ĠPaul": 3208,
      "sec": 3209,
      "ĠMad": 3210,
      "Ġfeed": 3211,
      "Ġequipment": 3212,
      "Ġexact": 3213,
      "Ġcomputer": 3214,
      "Ġmedical": 3215,
      "Ġhighly": 3216,
      "Ġexcell": 3217,
      "Ġdisp": 3218,
      "ĠHall": 3219,
      "Ġsometimes": 3220,
      "Ġviol": 3221,
      "ifornia": 3222,
      "Ġprojects": 3223,
      "atives": 3224,
      "Ġft": 3225,
      "irit": 3226,
      "Ġdocument": 3227,
      "EN": 3228,
      "agn": 3229,
      "aled": 3230,
      "Ġplaced": 3231,
      "Ġskills": 3232,
      "Ġsave": 3233,
      "vey": 3234,
      "Ġsource": 3235,
      "Ġfrequ": 3236,
      "ĠLeague": 3237,
      "ĠPre": 3238,
      "Ġhous": 3239,
      "Ġchurch": 3240,
      "Ġusers": 3241,
      "Ġblock": 3242,
      "isions": 3243,
      "Ġoffe": 3244,
      "gen": 3245,
      "Ġmultiple": 3246,
      "Ġrights": 3247,
      "Ġplatform": 3248,
      "ula": 3249,
      "Ġinvestig": 3250,
      "edic": 3251,
      "Ġdog": 3252,
      "Ġfloor": 3253,
      "hood": 3254,
      "men": 3255,
      "Ġhur": 3256,
      "Ġcouple": 3257,
      "Ġworth": 3258,
      "Ġfinished": 3259,
      "ĠBest": 3260,
      "Ġbeginning": 3261,
      "ĠLa": 3262,
      "Ġeventually": 3263,
      "idents": 3264,
      "ties": 3265,
      "Ġarticle": 3266,
      "ĠDivision": 3267,
      "Ġstudent": 3268,
      "Ġreach": 3269,
      "Ġturned": 3270,
      "asc": 3271,
      "iles": 3272,
      "ĠOff": 3273,
      "Ġuser": 3274,
      "Ġmention": 3275,
      "ĠDis": 3276,
      "Ġsus": 3277,
      "ĠFrom": 3278,
      "Ġopening": 3279,
      "Ġcritic": 3280,
      "Ġcollection": 3281,
      "Ġattention": 3282,
      "Ġindepend": 3283,
      "Ġhappy": 3284,
      "arter": 3285,
      "Ġspent": 3286,
      "oo": 3287,
      "Ġsens": 3288,
      "Ġsurface": 3289,
      "Ġitems": 3290,
      "Ġappeared": 3291,
      "Ġmorning": 3292,
      "unn": 3293,
      "Ġallows": 3294,
      "Ġ29": 3295,
      "Ġpressure": 3296,
      "alysis": 3297,
      "Ġearlier": 3298,
      "rast": 3299,
      "Ġencoura": 3300,
      "inks": 3301,
      "ĠRober": 3302,
      "Ġnecessary": 3303,
      "Ġcases": 3304,
      "Ġconcept": 3305,
      "Ġfle": 3306,
      "Ġproviding": 3307,
      "ederal": 3308,
      "Ġ190": 3309,
      "Ġsaying": 3310,
      "Ġlargest": 3311,
      "70": 3312,
      "With": 3313,
      "iers": 3314,
      "Ġnature": 3315,
      "Ġbal": 3316,
      "Ġacqu": 3317,
      "Ġpolicy": 3318,
      "Ġgiving": 3319,
      "IT": 3320,
      "vin": 3321,
      "zy": 3322,
      "rect": 3323,
      "Ġswe": 3324,
      "ĠPlay": 3325,
      "Ġhighest": 3326,
      "Ġwife": 3327,
      "ĠHol": 3328,
      "imin": 3329,
      "Ġcredit": 3330,
      "unt": 3331,
      "ĠRich": 3332,
      "aint": 3333,
      "Ġcode": 3334,
      "Ġsubst": 3335,
      "Ġtransfer": 3336,
      "ĠGeorge": 3337,
      "ĠFirst": 3338,
      "Ġlines": 3339,
      "IC": 3340,
      "ĠCalifornia": 3341,
      "erved": 3342,
      "uth": 3343,
      "Ġlives": 3344,
      "Ġsaf": 3345,
      "Ġmm": 3346,
      "Ġcool": 3347,
      "Ġwrite": 3348,
      "Ġrank": 3349,
      "Ġfix": 3350,
      "Ġdirectly": 3351,
      "Ġ2017": 3352,
      "Ġaircraft": 3353,
      "Ġdistrib": 3354,
      "Ġeffects": 3355,
      "xic": 3356,
      "Ġdark": 3357,
      "Ġoverall": 3358,
      "Ġskin": 3359,
      "ĠCanada": 3360,
      "Ġadminist": 3361,
      "Ġelements": 3362,
      "Ġpra": 3363,
      "ios": 3364,
      "Ġopened": 3365,
      "Ġcarry": 3366,
      "tee": 3367,
      "Ġremained": 3368,
      "Ġships": 3369,
      "ĠBel": 3370,
      "ĠChina": 3371,
      "asion": 3372,
      "Ġpretty": 3373,
      "Ġlif": 3374,
      "ĠAccording": 3375,
      "Ġclients": 3376,
      "Ġchance": 3377,
      "Ġdise": 3378,
      "aries": 3379,
      "Ġblood": 3380,
      "Ġtraditional": 3381,
      "And": 3382,
      "itable": 3383,
      "Ġstructure": 3384,
      "Ġrecently": 3385,
      "band": 3386,
      "Ġreviews": 3387,
      "Be": 3388,
      "ulated": 3389,
      "ĠCompany": 3390,
      "porary": 3391,
      "Ġbud": 3392,
      "aughter": 3393,
      "Ġsense": 3394,
      "iable": 3395,
      "ĠHen": 3396,
      "Ġtur": 3397,
      "Ġchalleng": 3398,
      "Ġnothing": 3399,
      "Ġparents": 3400,
      "âĢĵ": 3401,
      "Ġreb": 3402,
      "ĠSam": 3403,
      "Ġcondition": 3404,
      "Ġnice": 3405,
      "Ġlanguage": 3406,
      "ĠMary": 3407,
      "Ġge": 3408,
      "ĠBill": 3409,
      "Ġlegal": 3410,
      "Ġtelevision": 3411,
      "Ġkilled": 3412,
      "Ġsurround": 3413,
      "Ġinsurance": 3414,
      "Ġmaterials": 3415,
      "sp": 3416,
      "Ġ2005": 3417,
      "Ġserious": 3418,
      "ĠCoun": 3419,
      "90": 3420,
      "lant": 3421,
      "Ġult": 3422,
      "Ġroute": 3423,
      "Ġclick": 3424,
      "put": 3425,
      "Ġseems": 3426,
      "Ġ60": 3427,
      "Ġnovel": 3428,
      "ĠWashington": 3429,
      "ĠMac": 3430,
      "Ġcru": 3431,
      "Ġprograms": 3432,
      "Ġver": 3433,
      "cting": 3434,
      "Ġjud": 3435,
      "reek": 3436,
      "Ġmoment": 3437,
      "Ġcompletely": 3438,
      "Ġmax": 3439,
      "enes": 3440,
      "ĠAut": 3441,
      "Ġextreme": 3442,
      "Ġoption": 3443,
      "Ġdirector": 3444,
      ".âĢĿ": 3445,
      "azine": 3446,
      "Ġreading": 3447,
      "Ġcert": 3448,
      "Ġevidence": 3449,
      "So": 3450,
      "Ġtrust": 3451,
      "Ġwonder": 3452,
      "itute": 3453,
      "Ġmer": 3454,
      "ĠTV": 3455,
      "ĠAustralian": 3456,
      "Ġexpected": 3457,
      "cies": 3458,
      "Ġtransport": 3459,
      "Ġfully": 3460,
      "Ġappl": 3461,
      "chan": 3462,
      "Ġ#": 3463,
      "ption": 3464,
      "Ġbank": 3465,
      "Ġtypes": 3466,
      "NA": 3467,
      "Ġcoast": 3468,
      "Ġkids": 3469,
      "Ġpiece": 3470,
      "ĠFrance": 3471,
      "oper": 3472,
      "Ġesc": 3473,
      "BC": 3474,
      "Ġbrother": 3475,
      "Ġthreat": 3476,
      "change": 3477,
      "Ġvoc": 3478,
      "rences": 3479,
      "Ġpassed": 3480,
      "Ġmarketing": 3481,
      "mitted": 3482,
      "Ġpen": 3483,
      "Ġaltern": 3484,
      "ĠTH": 3485,
      "ĠIr": 3486,
      "Ġshot": 3487,
      "Ġhands": 3488,
      "ĠMore": 3489,
      "Ġrelig": 3490,
      "ĠSing": 3491,
      "ressive": 3492,
      "arden": 3493,
      "Ġisn": 3494,
      "king": 3495,
      "Ġruns": 3496,
      "Ġadj": 3497,
      "Ġdigital": 3498,
      "Ġly": 3499,
      "Ġshall": 3500,
      "ibly": 3501,
      "oly": 3502,
      "Ġx": 3503,
      "Ġones": 3504,
      "Ġpath": 3505,
      "Ġgives": 3506,
      "ĠPal": 3507,
      "ĠSqu": 3508,
      "Ġlarger": 3509,
      "Ġcosts": 3510,
      "Ġformed": 3511,
      "rial": 3512,
      "ĠWhite": 3513,
      "Ġincreasing": 3514,
      "Ġremain": 3515,
      "Ġgreen": 3516,
      "ĠGold": 3517,
      "anned": 3518,
      "Ġstarting": 3519,
      "Ġtemper": 3520,
      "sey": 3521,
      "Ġpurchase": 3522,
      "ĠCollege": 3523,
      "mar": 3524,
      "ulations": 3525,
      "Ġreplace": 3526,
      "etic": 3527,
      "Ġestim": 3528,
      "ĠMost": 3529,
      "omet": 3530,
      "Our": 3531,
      "ĠGroup": 3532,
      "Ġtro": 3533,
      "Ġdevice": 3534,
      "Ġshown": 3535,
      "nown": 3536,
      "ĠOther": 3537,
      "Ġmachine": 3538,
      "Ġscene": 3539,
      "izes": 3540,
      "het": 3541,
      "Ġtouch": 3542,
      "right": 3543,
      "mission": 3544,
      "Ġorganization": 3545,
      "Ġcrew": 3546,
      "ĠUs": 3547,
      "ĠHot": 3548,
      "ĠMichael": 3549,
      "Ġstates": 3550,
      "ĠNor": 3551,
      "24": 3552,
      "mark": 3553,
      "Ġenter": 3554,
      "Ġoffered": 3555,
      "Ġsafety": 3556,
      "tered": 3557,
      "Ġcentral": 3558,
      "ivity": 3559,
      "ospital": 3560,
      "Ġ2019": 3561,
      "Ġpatients": 3562,
      "ĠWind": 3563,
      "ĠÂ£": 3564,
      "Ġanyone": 3565,
      "zz": 3566,
      "Ġgoals": 3567,
      "iant": 3568,
      "Ġdead": 3569,
      "Ġload": 3570,
      "ĠNet": 3571,
      "Ġsurpr": 3572,
      "Ġfile": 3573,
      "ĠDan": 3574,
      "Ð¾": 3575,
      "gar": 3576,
      "Ġden": 3577,
      "ĠâĢĻ": 3578,
      "Ġfresh": 3579,
      "Ġpresident": 3580,
      "venue": 3581,
      "Ġnar": 3582,
      "Ġcompared": 3583,
      "wise": 3584,
      "Ġdaily": 3585,
      "ropri": 3586,
      "ston": 3587,
      "umn": 3588,
      "inese": 3589,
      "Ġprec": 3590,
      "Ġhair": 3591,
      "Ġassociated": 3592,
      "Ġfeatured": 3593,
      "orage": 3594,
      "ago": 3595,
      "ĠBra": 3596,
      "rief": 3597,
      "Ġcell": 3598,
      "Ġnumbers": 3599,
      "Ġimmediately": 3600,
      "ares": 3601,
      "cription": 3602,
      "Ġindividuals": 3603,
      "Ġmoving": 3604,
      "eum": 3605,
      "Ġended": 3606,
      "ĠCourt": 3607,
      "Ġfarm": 3608,
      "ros": 3609,
      "Ġsun": 3610,
      "Ġlic": 3611,
      "Ġeffort": 3612,
      "Sh": 3613,
      "itect": 3614,
      "ĠAngel": 3615,
      "ĠAnt": 3616,
      "Ġsell": 3617,
      "Ġjoined": 3618,
      "All": 3619,
      "Ġborn": 3620,
      "Ġsituation": 3621,
      "Ġsolution": 3622,
      "Ġsites": 3623,
      "ĠChurch": 3624,
      "ĠMart": 3625,
      "wide": 3626,
      "Ġisland": 3627,
      "Ġâ": 3628,
      "ĠMount": 3629,
      "Ġsequ": 3630,
      "yond": 3631,
      "Ġchanged": 3632,
      "Ġdom": 3633,
      "Ġteac": 3634,
      "Ġpartners": 3635,
      "Ġcounter": 3636,
      "ĠCr": 3637,
      "Ġcreating": 3638,
      "aling": 3639,
      "ĠMusic": 3640,
      "Ġsubsequ": 3641,
      "ĠSl": 3642,
      "Ġphysical": 3643,
      "Ġuses": 3644,
      "earch": 3645,
      "Ġlooks": 3646,
      "Ġimages": 3647,
      "Ġnearly": 3648,
      "Ġneigh": 3649,
      "ĠConst": 3650,
      "Ġobject": 3651,
      "Ġpattern": 3652,
      "Ġrail": 3653,
      "Ġliter": 3654,
      "Ġhop": 3655,
      "ĠAssociation": 3656,
      "Ã¡": 3657,
      "Ġwat": 3658,
      "Ġbott": 3659,
      "ĠRock": 3660,
      "Ġrain": 3661,
      "Ġdrug": 3662,
      "atively": 3663,
      "raw": 3664,
      "Ġdoor": 3665,
      "Ð°": 3666,
      "ĠDepartment": 3667,
      "ĠDire": 3668,
      "Ġunit": 3669,
      "Ġteams": 3670,
      "Ġ31": 3671,
      "ĠGovern": 3672,
      "Ġroll": 3673,
      "leg": 3674,
      "Ġavoid": 3675,
      "99": 3676,
      "oms": 3677,
      "ipped": 3678,
      "ĠBer": 3679,
      "ously": 3680,
      "west": 3681,
      "Ġadult": 3682,
      "Ġintegr": 3683,
      "rag": 3684,
      "Ġadvant": 3685,
      "Ġexcellent": 3686,
      "Ġboy": 3687,
      "ida": 3688,
      "Ġunits": 3689,
      "haps": 3690,
      "Ġsn": 3691,
      "Ġtrade": 3692,
      "ĠSen": 3693,
      "ĠChristian": 3694,
      "que": 3695,
      "Ġactivity": 3696,
      "eed": 3697,
      "Ġbeg": 3698,
      "Ġapprox": 3699,
      "Ġessential": 3700,
      "Ġamazing": 3701,
      "hips": 3702,
      "Ġlatest": 3703,
      "Ġfourth": 3704,
      "Ġbirth": 3705,
      "rig": 3706,
      "Ġpeak": 3707,
      "ĠSuper": 3708,
      "Ġund": 3709,
      "isf": 3710,
      "Ġachieve": 3711,
      "isl": 3712,
      "aby": 3713,
      "Ġshoot": 3714,
      "Ġsale": 3715,
      "Ġdiv": 3716,
      "MS": 3717,
      "pre": 3718,
      "Ġstories": 3719,
      "ĠPhil": 3720,
      "ĠRepublic": 3721,
      "ĠAdd": 3722,
      "ĠRo": 3723,
      "aught": 3724,
      "ĠRoyal": 3725,
      "Ġvot": 3726,
      "Ġresources": 3727,
      "Ġrefer": 3728,
      "Ġoriginally": 3729,
      "Ġtal": 3730,
      "ĠWil": 3731,
      "??": 3732,
      "Ġhelped": 3733,
      "ĠUp": 3734,
      "Ġdemon": 3735,
      "My": 3736,
      "RE": 3737,
      "ĠNow": 3738,
      "ounds": 3739,
      "Ġmovie": 3740,
      "Ġgoes": 3741,
      "Ġculture": 3742,
      "rian": 3743,
      "ĠSpe": 3744,
      "Ġwhose": 3745,
      "Ġproduce": 3746,
      "ĠClub": 3747,
      "more": 3748,
      "Ġhuge": 3749,
      "Ġwoman": 3750,
      "Ġfinally": 3751,
      "ilies": 3752,
      "Ġfif": 3753,
      "Ġspot": 3754,
      "Ġbehav": 3755,
      "Ġfavorite": 3756,
      "ij": 3757,
      "Ġpoor": 3758,
      "Ġdouble": 3759,
      "Ġfair": 3760,
      "Ġschools": 3761,
      "Ġdro": 3762,
      "Ġhour": 3763,
      "vere": 3764,
      "ĠInc": 3765,
      "Ġcateg": 3766,
      "Ġkitchen": 3767,
      "Ġspeak": 3768,
      "ĠOut": 3769,
      "Ġcelebr": 3770,
      "Ġfootball": 3771,
      "ĠJer": 3772,
      "Ġclos": 3773,
      "ĠTrans": 3774,
      "Ġbow": 3775,
      "ĠBook": 3776,
      "Ġsea": 3777,
      "Ġprinc": 3778,
      "Ġgar": 3779,
      "Ġ2000": 3780,
      "bit": 3781,
      "Ġgrowing": 3782,
      "22": 3783,
      "Ġplanning": 3784,
      "Ġappearance": 3785,
      "US": 3786,
      "ĠBay": 3787,
      "icket": 3788,
      "ãĥ": 3789,
      "ĠVir": 3790,
      "order": 3791,
      "Ġaw": 3792,
      "75": 3793,
      "ĠChinese": 3794,
      "ĠQue": 3795,
      "ĠYear": 3796,
      "Ġwel": 3797,
      "Ġtried": 3798,
      "ius": 3799,
      "Ġmobile": 3800,
      "ĠBus": 3801,
      "Ġdemand": 3802,
      "Ġcapital": 3803,
      "Ġpolice": 3804,
      "ĠTw": 3805,
      "Ġaim": 3806,
      "Ġresponsible": 3807,
      "Ġresist": 3808,
      "Ġpow": 3809,
      "Ġexpert": 3810,
      "ms": 3811,
      "OS": 3812,
      "ĠMr": 3813,
      "ĠCons": 3814,
      "imb": 3815,
      "Ġtrain": 3816,
      "sych": 3817,
      "enge": 3818,
      "Cl": 3819,
      "place": 3820,
      "ogle": 3821,
      "Ġtrip": 3822,
      "Ġmiddle": 3823,
      "Ġbecoming": 3824,
      "Ġvoice": 3825,
      "ĠCup": 3826,
      "Ġtemperature": 3827,
      "Ġ2004": 3828,
      "asy": 3829,
      "ĠService": 3830,
      "OT": 3831,
      "Ġang": 3832,
      "ocks": 3833,
      "Ġmovement": 3834,
      "ĠLou": 3835,
      "ĠMet": 3836,
      "ĠPri": 3837,
      "Ġsend": 3838,
      "orial": 3839,
      "Ġbudget": 3840,
      "Ġslight": 3841,
      "omas": 3842,
      "down": 3843,
      "Ġanalysis": 3844,
      "ube": 3845,
      "Ġimplement": 3846,
      "estival": 3847,
      "istry": 3848,
      "semb": 3849,
      "rd": 3850,
      "ĠChristmas": 3851,
      "undred": 3852,
      "Ġsett": 3853,
      "ancy": 3854,
      "Ġrestaur": 3855,
      "Ġpaid": 3856,
      "ĠCam": 3857,
      "Ġdedic": 3858,
      "ricane": 3859,
      "Ġstock": 3860,
      "Ġpreviously": 3861,
      "rated": 3862,
      "Ġpurpose": 3863,
      "But": 3864,
      "Ġdry": 3865,
      "ĠHam": 3866,
      "ĠStar": 3867,
      "II": 3868,
      "Ġtools": 3869,
      "Ġwarm": 3870,
      "berg": 3871,
      "rison": 3872,
      "pects": 3873,
      "bert": 3874,
      "Ġcompl": 3875,
      "mm": 3876,
      "ander": 3877,
      "rey": 3878,
      "Ġrequirements": 3879,
      "Ġcollege": 3880,
      "Ġexcept": 3881,
      "istics": 3882,
      "Ġestablish": 3883,
      "Ġgas": 3884,
      "Ġglass": 3885,
      "iate": 3886,
      "van": 3887,
      "edy": 3888,
      "Ġexpand": 3889,
      "Ġmeaning": 3890,
      "ĠLaw": 3891,
      "Ġsen": 3892,
      "Ġbasis": 3893,
      "Ġinnov": 3894,
      "olic": 3895,
      "uate": 3896,
      "fl": 3897,
      "ĠSk": 3898,
      "Ġsupply": 3899,
      "tained": 3900,
      "Ġrent": 3901,
      "ĠCle": 3902,
      "ĠMal": 3903,
      "ĠOf": 3904,
      "One": 3905,
      "ĠMany": 3906,
      "hem": 3907,
      "itely": 3908,
      "Ġmetal": 3909,
      "ĠIsland": 3910,
      "ĠÃ": 3911,
      "Ġserve": 3912,
      "Ġprimary": 3913,
      "ags": 3914,
      "ĠFil": 3915,
      "Ġvehicle": 3916,
      "Ġprices": 3917,
      "Ġgrand": 3918,
      "Ġentry": 3919,
      "rows": 3920,
      "Ġsigned": 3921,
      "Ġinteresting": 3922,
      "Ġaware": 3923,
      "force": 3924,
      "Ġhelps": 3925,
      "Ġfans": 3926,
      "ĠHome": 3927,
      "Ġdespite": 3928,
      "ipe": 3929,
      "Ġreplaced": 3930,
      "Ġcovered": 3931,
      "ĠScott": 3932,
      "Ġcopy": 3933,
      "//": 3934,
      "Ġplaces": 3935,
      "Ġpicture": 3936,
      "Ġadapt": 3937,
      "Ġbird": 3938,
      "Ġoperations": 3939,
      "ĠCouncil": 3940,
      "rics": 3941,
      "Ġexhib": 3942,
      "uled": 3943,
      "Ġadvert": 3944,
      "ĠHealth": 3945,
      "Ġlisted": 3946,
      "Ġassess": 3947,
      "Ġrout": 3948,
      "23": 3949,
      "ĠCong": 3950,
      "Ġstudio": 3951,
      "ĠSystem": 3952,
      "ken": 3953,
      "Ġbath": 3954,
      "Ġthus": 3955,
      "ĠAtlant": 3956,
      "Ġannual": 3957,
      "bl": 3958,
      "antly": 3959,
      "Ġinterested": 3960,
      "Ġcandid": 3961,
      "ĠHill": 3962,
      "Ġeye": 3963,
      "Ġaudience": 3964,
      "Ġcritical": 3965,
      "inter": 3966,
      "Ġleaving": 3967,
      "Ġglobal": 3968,
      "ste": 3969,
      "ĠTur": 3970,
      "ooth": 3971,
      "vis": 3972,
      "Ġbenefits": 3973,
      "Ġfamilies": 3974,
      "Ġconvers": 3975,
      "Ġsex": 3976,
      "Ġdecor": 3977,
      "Ġcontains": 3978,
      "Ġdeliver": 3979,
      "Ġdaughter": 3980,
      "Ġcontain": 3981,
      "aval": 3982,
      "Ġcontinu": 3983,
      "omen": 3984,
      "ruit": 3985,
      "ĠCommun": 3986,
      "den": 3987,
      "ĠSund": 3988,
      "ĠHenry": 3989,
      "Ġcollabor": 3990,
      "Ġrespond": 3991,
      "Ġcompon": 3992,
      "Ġrespective": 3993,
      "ĠDist": 3994,
      "Ġdrop": 3995,
      "Ġblue": 3996,
      "Ġselected": 3997,
      "ĠGreen": 3998,
      "Ġgreater": 3999,
      "Ġscience": 4000,
      "ĠRobert": 4001,
      "ya": 4002,
      "500": 4003,
      "Ġincor": 4004,
      "ronic": 4005,
      "Ġder": 4006,
      "Ġmanager": 4007,
      "Ġsolutions": 4008,
      "Ġscient": 4009,
      "Ġheat": 4010,
      "Ġjoin": 4011,
      "bon": 4012,
      "house": 4013,
      "Ġthous": 4014,
      "Ġbelieved": 4015,
      "acing": 4016,
      "Ġfa": 4017,
      "Ġlik": 4018,
      "tery": 4019,
      "Ġvac": 4020,
      "Ġappropri": 4021,
      "Ġphotos": 4022,
      "Ġstatus": 4023,
      "part": 4024,
      "Ġcharge": 4025,
      "Ġbrief": 4026,
      "Ġeconomic": 4027,
      "Ġremains": 4028,
      "Ġhotel": 4029,
      "Ġadop": 4030,
      "Ġ+": 4031,
      "ĠGame": 4032,
      "Ġadvance": 4033,
      "itude": 4034,
      "ĠRoman": 4035,
      "icks": 4036,
      "ka": 4037,
      "Ġmechan": 4038,
      "ĠUnion": 4039,
      "ocr": 4040,
      "Ġpowerful": 4041,
      "inary": 4042,
      "AA": 4043,
      "ĠGrand": 4044,
      "Ġking": 4045,
      "ĠBrown": 4046,
      "Ġremember": 4047,
      "Ġletter": 4048,
      "Ġguns": 4049,
      "Ġnation": 4050,
      "ĠPlease": 4051,
      "Ġconsult": 4052,
      "set": 4053,
      "Ġhear": 4054,
      "Ġradio": 4055,
      "ĠChampionship": 4056,
      "Ġanti": 4057,
      "Ġstraight": 4058,
      "Ġfilms": 4059,
      "ĠKingdom": 4060,
      "Ġfine": 4061,
      "hens": 4062,
      "Ġposted": 4063,
      "Ġsetting": 4064,
      "Ġsmaller": 4065,
      "Ġmessage": 4066,
      "sen": 4067,
      "ĠSol": 4068,
      "26": 4069,
      "ĠMag": 4070,
      "Ġefforts": 4071,
      "Ġdegree": 4072,
      "ĠTwo": 4073,
      "Ġemot": 4074,
      "ctors": 4075,
      "Ġvictory": 4076,
      "Ġonto": 4077,
      "ĠMil": 4078,
      "Ġtas": 4079,
      "Ġmill": 4080,
      "Ġregist": 4081,
      "itz": 4082,
      "Ġexerc": 4083,
      "Ġbeyond": 4084,
      "ĠFin": 4085,
      "Ġoccup": 4086,
      "ĠDel": 4087,
      "Ġemployees": 4088,
      "ĠAlso": 4089,
      "arant": 4090,
      "ĠAward": 4091,
      "ech": 4092,
      "ĠInter": 4093,
      "://": 4094,
      "icip": 4095,
      "olute": 4096,
      "Ġdoll": 4097,
      "rical": 4098,
      "ollowing": 4099,
      "fall": 4100,
      "Ġtheme": 4101,
      "ĠJes": 4102,
      "Ġintroduced": 4103,
      "can": 4104,
      "35": 4105,
      "Ġnames": 4106,
      "ady": 4107,
      "add": 4108,
      "ancing": 4109,
      "Ġfailed": 4110,
      "ĠMat": 4111,
      "Ġtow": 4112,
      "ams": 4113,
      "ils": 4114,
      "hester": 4115,
      "ivery": 4116,
      "Ġfurn": 4117,
      "ĠVirgin": 4118,
      "Ġmission": 4119,
      "Ġowners": 4120,
      "ĠRob": 4121,
      "Ġweather": 4122,
      "Ġheard": 4123,
      "Ġtropical": 4124,
      "clusive": 4125,
      "Ġwed": 4126,
      "Ġinstr": 4127,
      "Ġchem": 4128,
      "Ġforced": 4129,
      "Ġselect": 4130,
      "Ġmeasure": 4131,
      "ĠEv": 4132,
      "Ġbusinesses": 4133,
      "Ġimag": 4134,
      "Ġstrateg": 4135,
      "ores": 4136,
      "Ġcorrect": 4137,
      "ĠAlex": 4138,
      "ĠLake": 4139,
      "Ġmyself": 4140,
      "Ġfemale": 4141,
      "Ġdisease": 4142,
      "Ġpresented": 4143,
      "ĠMcC": 4144,
      "Ġnumerous": 4145,
      "hy": 4146,
      "uated": 4147,
      "ĠThen": 4148,
      "ĠKore": 4149,
      "ĠHere": 4150,
      "ĠDem": 4151,
      "ĠFlor": 4152,
      "AM": 4153,
      "amic": 4154,
      "Ġnormal": 4155,
      "ipp": 4156,
      "Ġapply": 4157,
      "Ġlaun": 4158,
      "ĠGermany": 4159,
      "Ġstudies": 4160,
      "Ġ80": 4161,
      "opping": 4162,
      "Ġremaining": 4163,
      "Ġspirit": 4164,
      "Ġeyes": 4165,
      "ĠFace": 4166,
      "Ġwrong": 4167,
      "Ġhundred": 4168,
      "eds": 4169,
      "Ġbackground": 4170,
      "Ġarrived": 4171,
      "Ġapproximately": 4172,
      "inner": 4173,
      "ĠJew": 4174,
      "well": 4175,
      "Ġexperienced": 4176,
      "ĠMod": 4177,
      "Ġscored": 4178,
      "abin": 4179,
      "Ġordered": 4180,
      "ĠTex": 4181,
      "Ġselection": 4182,
      "ãģ": 4183,
      "Ġmeant": 4184,
      "Ġreduce": 4185,
      "Ġorganiz": 4186,
      "ibrary": 4187,
      "Ġrap": 4188,
      "ĠOver": 4189,
      "Ġspend": 4190,
      "Ġproced": 4191,
      "Ġtherefore": 4192,
      "Ġelectric": 4193,
      "Ġsort": 4194,
      "ashion": 4195,
      "Ġanswer": 4196,
      "Ġ2003": 4197,
      "ĠPet": 4198,
      "Ġdram": 4199,
      "ĠMill": 4200,
      "Ġstrength": 4201,
      "Ġanaly": 4202,
      "Ġprotection": 4203,
      "Ġinfluence": 4204,
      "eal": 4205,
      "anish": 4206,
      "olf": 4207,
      "ĠLord": 4208,
      "ĠChic": 4209,
      "vest": 4210,
      "Ġfat": 4211,
      "ĠLove": 4212,
      "ervation": 4213,
      "Ġcorpor": 4214,
      "mes": 4215,
      "imal": 4216,
      "Ġquarter": 4217,
      "Ġapplications": 4218,
      "Ġstorage": 4219,
      "Ġkept": 4220,
      "Ġcompetition": 4221,
      "ĠAre": 4222,
      "Ġwhom": 4223,
      "ĠTom": 4224,
      "Ġanc": 4225,
      "Ġstrugg": 4226,
      "Ġcit": 4227,
      "Ġmostly": 4228,
      "88": 4229,
      "Ġleader": 4230,
      "acity": 4231,
      "ĠInf": 4232,
      "Ġminor": 4233,
      "Ġintended": 4234,
      "ĠMont": 4235,
      "Ġmis": 4236,
      "Ġnine": 4237,
      "ipping": 4238,
      "ĠClass": 4239,
      "Ġsleep": 4240,
      "Ġremoved": 4241,
      "annel": 4242,
      "Ġfinish": 4243,
      "ĠSpr": 4244,
      "Ġinitially": 4245,
      "âĢĿ.": 4246,
      "Ġriver": 4247,
      "EC": 4248,
      "Ġpet": 4249,
      "Ġflu": 4250,
      "Ġunderstanding": 4251,
      "ĠSal": 4252,
      "ĠEven": 4253,
      "Ar": 4254,
      "Ġheav": 4255,
      "Ġclient": 4256,
      "ĠSmith": 4257,
      "Ġahead": 4258,
      "Ġsust": 4259,
      "ĠCare": 4260,
      "iture": 4261,
      "Ġforms": 4262,
      "Ġregarding": 4263,
      "ĠSun": 4264,
      "Ġrat": 4265,
      "Ġ90": 4266,
      "Ġsav": 4267,
      "Ġpages": 4268,
      "Ġbasic": 4269,
      "Ġpieces": 4270,
      "Ġtraffic": 4271,
      "Ġgets": 4272,
      "Ġprefer": 4273,
      "Ġmedic": 4274,
      "lor": 4275,
      "Ġpictures": 4276,
      "ading": 4277,
      "Ġ35": 4278,
      "ifying": 4279,
      "ĠBen": 4280,
      "95": 4281,
      "Ġ70": 4282,
      "Ġalone": 4283,
      "ourney": 4284,
      "error": 4285,
      "ĠNY": 4286,
      "anging": 4287,
      "Ġdirection": 4288,
      "Ġnote": 4289,
      "known": 4290,
      "Ġcash": 4291,
      "Ġfell": 4292,
      "ado": 4293,
      "Ġcycl": 4294,
      "Ġmajority": 4295,
      "ki": 4296,
      "Ġdream": 4297,
      "100": 4298,
      "Ġfort": 4299,
      "Ġopportunities": 4300,
      "Ġseparate": 4301,
      "see": 4302,
      "Ġexactly": 4303,
      "Ġcivil": 4304,
      "ĠMo": 4305,
      "Ġspread": 4306,
      "Ġcarried": 4307,
      "rate": 4308,
      "Ġgraph": 4309,
      "Ġprofession": 4310,
      "Ġappears": 4311,
      "Ġexisting": 4312,
      "De": 4313,
      "Ġthinking": 4314,
      "ga": 4315,
      "Ġwild": 4316,
      "Ġartist": 4317,
      "Ġarchitect": 4318,
      "Ġdifference": 4319,
      "enced": 4320,
      "kend": 4321,
      "Ġenh": 4322,
      "ĠGra": 4323,
      "Ġoperation": 4324,
      "abit": 4325,
      "oday": 4326,
      "Ġsatisf": 4327,
      "ĠWood": 4328,
      "ĠFree": 4329,
      "Ġsupported": 4330,
      "OU": 4331,
      "Ġflight": 4332,
      "Ġsch": 4333,
      "Ġrecords": 4334,
      "Ġdevices": 4335,
      "isation": 4336,
      "Ġprotect": 4337,
      "Ġpil": 4338,
      "uries": 4339,
      "Ġpeace": 4340,
      "ĠTimes": 4341,
      "Ġwish": 4342,
      "iques": 4343,
      "Ġfab": 4344,
      "45": 4345,
      "Ġpool": 4346,
      "Ġhar": 4347,
      "ĠWestern": 4348,
      "Ġir": 4349,
      "Ġbra": 4350,
      "Ġdepart": 4351,
      "Ġren": 4352,
      "Ġadvantage": 4353,
      "Ġrecording": 4354,
      "65": 4355,
      "ID": 4356,
      "ĠThomas": 4357,
      "Ġgrant": 4358,
      "Ġbridge": 4359,
      "Ġextremely": 4360,
      "Ġdiam": 4361,
      "Ġoffering": 4362,
      "Ġthick": 4363,
      "Ġbenefit": 4364,
      "Ġbul": 4365,
      "ĠSince": 4366,
      "Ġwinter": 4367,
      "bour": 4368,
      "Ġdisapp": 4369,
      "cause": 4370,
      "Ġrepe": 4371,
      "Ġsuppl": 4372,
      "Ġconv": 4373,
      "antry": 4374,
      "Ġprepar": 4375,
      "28": 4376,
      "Ġtask": 4377,
      "Ġdu": 4378,
      "Ġhus": 4379,
      "ada": 4380,
      "rupt": 4381,
      "Ġaccur": 4382,
      "ĠTechn": 4383,
      "heast": 4384,
      "Ġmagazine": 4385,
      "Ġble": 4386,
      "ĠHist": 4387,
      "ellig": 4388,
      "ickets": 4389,
      "Ġdoub": 4390,
      "iced": 4391,
      "teen": 4392,
      "gram": 4393,
      "Ġscript": 4394,
      "Ġproposed": 4395,
      "Ġwait": 4396,
      "ĠBur": 4397,
      "Ġrules": 4398,
      "ĠGoogle": 4399,
      "Ġarrange": 4400,
      "Ġcritics": 4401,
      "Ġpair": 4402,
      "Ġsouthern": 4403,
      "ero": 4404,
      "Ġinvestment": 4405,
      "ĠIS": 4406,
      "Ġeat": 4407,
      "'d": 4408,
      "Ġhomes": 4409,
      "ĠRichard": 4410,
      "Ġreasons": 4411,
      "Ġbillion": 4412,
      "Ġknew": 4413,
      "formation": 4414,
      "Ġguide": 4415,
      "ĠLit": 4416,
      "Ġfeeling": 4417,
      "ĠMexic": 4418,
      "ĠBig": 4419,
      "ses": 4420,
      "Ġcold": 4421,
      "Ġopin": 4422,
      "Ġ2001": 4423,
      "ny": 4424,
      "Ġconcent": 4425,
      "ĠFrank": 4426,
      "Ġshop": 4427,
      "ĠGood": 4428,
      "ĠOp": 4429,
      "ĠPeter": 4430,
      "road": 4431,
      "Ġmicro": 4432,
      "osh": 4433,
      "Ġrare": 4434,
      "Ġmethods": 4435,
      "odies": 4436,
      "Ġrates": 4437,
      "Ġdefinitely": 4438,
      "Ġcontem": 4439,
      "Ġguitar": 4440,
      "Ġbecomes": 4441,
      "ĠEach": 4442,
      "spe": 4443,
      "Ġreports": 4444,
      "Ġcontroll": 4445,
      "Ġrepair": 4446,
      "ĠAfrica": 4447,
      "ĠTor": 4448,
      "ipl": 4449,
      "Ġpresence": 4450,
      "ĠEarth": 4451,
      "Ġmusical": 4452,
      "ially": 4453,
      "ĠSunday": 4454,
      "Con": 4455,
      "cher": 4456,
      "reak": 4457,
      "ĠIts": 4458,
      "ĠTexas": 4459,
      "Ġsty": 4460,
      "Ġtrou": 4461,
      "ucle": 4462,
      "Ġapprec": 4463,
      "ĠVict": 4464,
      "While": 4465,
      "Ex": 4466,
      "ãĤ": 4467,
      "ĠAN": 4468,
      "Ġsecure": 4469,
      "igan": 4470,
      "Ġspl": 4471,
      "Ġarmy": 4472,
      "Ġframe": 4473,
      "Pl": 4474,
      "Ġroof": 4475,
      "udd": 4476,
      "Ġclosed": 4477,
      "Ġbuildings": 4478,
      "AP": 4479,
      "Ġcontinues": 4480,
      "Ġcalc": 4481,
      "ĠEnter": 4482,
      "Ġbottom": 4483,
      "za": 4484,
      "Ġsteel": 4485,
      "ulate": 4486,
      "Ġsociety": 4487,
      "27": 4488,
      "Ġer": 4489,
      "riage": 4490,
      "ona": 4491,
      "vant": 4492,
      "Ġwinning": 4493,
      "Ġdirected": 4494,
      "ĠFranc": 4495,
      "Ġtroops": 4496,
      "Ġmaster": 4497,
      "Ġstream": 4498,
      "Ġplanned": 4499,
      "ĠItal": 4500,
      "ĠAnn": 4501,
      "Ġshowed": 4502,
      "rael": 4503,
      "Ph": 4504,
      "Ġsuggested": 4505,
      "writ": 4506,
      "osen": 4507,
      "Ġmarried": 4508,
      "rant": 4509,
      "Ġnorthern": 4510,
      "Ġmanaged": 4511,
      "Ġdebut": 4512,
      "aturday": 4513,
      "uty": 4514,
      "Ġagreed": 4515,
      "Ġlaunched": 4516,
      "Ġ2002": 4517,
      "Ġsources": 4518,
      "Ġdiscovered": 4519,
      "ĠMem": 4520,
      "Ġ:": 4521,
      "rab": 4522,
      "Ġmodels": 4523,
      "bed": 4524,
      "Ġsports": 4525,
      "Ġmph": 4526,
      "ĠEvery": 4527,
      "Ġphoto": 4528,
      "Ġestimated": 4529,
      "Ġallowing": 4530,
      "Ġdistin": 4531,
      "Ġmotor": 4532,
      "ĠAwards": 4533,
      "ĠOld": 4534,
      "Ġdemonstr": 4535,
      "ET": 4536,
      "ĠBattle": 4537,
      "Ġhom": 4538,
      "Ġfigure": 4539,
      "overy": 4540,
      "Ġsand": 4541,
      "Ġweap": 4542,
      "iling": 4543,
      "Ġfear": 4544,
      "olk": 4545,
      "ĠChicago": 4546,
      "Ġdistance": 4547,
      "Ġmaximum": 4548,
      "Ġwriter": 4549,
      "OM": 4550,
      "Ġ45": 4551,
      "onna": 4552,
      "Ġutil": 4553,
      "Ġsecret": 4554,
      "rees": 4555,
      "ĠFe": 4556,
      "ims": 4557,
      "ĠTown": 4558,
      "Ġuseful": 4559,
      "Ġsession": 4560,
      "Ġstuff": 4561,
      "Ġbill": 4562,
      "Ġdedicated": 4563,
      "cean": 4564,
      "usion": 4565,
      "Ġolder": 4566,
      "Ġsuff": 4567,
      "ota": 4568,
      "Ġtransl": 4569,
      "nel": 4570,
      "Ġcry": 4571,
      "ĠSub": 4572,
      "ructed": 4573,
      "Ġmanufacture": 4574,
      "Des": 4575,
      "Ġelection": 4576,
      "rier": 4577,
      "yer": 4578,
      "dule": 4579,
      "Ġclin": 4580,
      "Ġadvice": 4581,
      "Ġpaint": 4582,
      "alled": 4583,
      "Ġdrink": 4584,
      "Ġinspired": 4585,
      "talion": 4586,
      "itter": 4587,
      "Ġworkers": 4588,
      "Ġeasier": 4589,
      "Ġanimals": 4590,
      "ĠCongress": 4591,
      "Ġraised": 4592,
      "Ġcertainly": 4593,
      "atically": 4594,
      "Ġmi": 4595,
      "ented": 4596,
      "Ġindependent": 4597,
      "Ġdete": 4598,
      "amin": 4599,
      "Ġslightly": 4600,
      "Ġloved": 4601,
      "Ġdang": 4602,
      "Ġhyd": 4603,
      "Ġprincip": 4604,
      "iance": 4605,
      "Ġadvanced": 4606,
      "Ġconflic": 4607,
      "ĠJohnson": 4608,
      "standing": 4609,
      "Ġhusband": 4610,
      "Ġincorpor": 4611,
      "ĠLos": 4612,
      "ĠRem": 4613,
      "Ġhelping": 4614,
      "ena": 4615,
      "miss": 4616,
      "ĠServices": 4617,
      "gu": 4618,
      "ĠFriday": 4619,
      "Ġtree": 4620,
      "ĠCarol": 4621,
      "ĠArch": 4622,
      "Ġharm": 4623,
      "Ġupper": 4624,
      "unte": 4625,
      "ĠJesus": 4626,
      "ĠFlorida": 4627,
      "Ġwonderful": 4628,
      "Ġreference": 4629,
      "Ġ--": 4630,
      "Ġideal": 4631,
      "Ġresidents": 4632,
      "Ġchallenge": 4633,
      "Ġwasn": 4634,
      "Ġentered": 4635,
      "Ġfacilities": 4636,
      "Ġartists": 4637,
      "ĠSum": 4638,
      "cel": 4639,
      "vention": 4640,
      "Ġlaunch": 4641,
      "ette": 4642,
      "Ġsymb": 4643,
      "oles": 4644,
      "iser": 4645,
      "jected": 4646,
      "Ġforeign": 4647,
      "pass": 4648,
      "ĠOffice": 4649,
      "IL": 4650,
      "29": 4651,
      "burg": 4652,
      "oving": 4653,
      "Ġnotes": 4654,
      "Ġsched": 4655,
      "Ġhealthy": 4656,
      "Ġafford": 4657,
      "Ġadjust": 4658,
      "Ġleague": 4659,
      "Ġ500": 4660,
      "Ġissued": 4661,
      "Ġabsolute": 4662,
      "Ġmaintain": 4663,
      "Ġinternet": 4664,
      "ayer": 4665,
      "ĠUnder": 4666,
      "Ġjourney": 4667,
      "Ġdelivery": 4668,
      "ING": 4669,
      "ĠBoth": 4670,
      "Ġagreement": 4671,
      "ĠRoute": 4672,
      "Ġactions": 4673,
      "Ġshape": 4674,
      "Ġfish": 4675,
      "ĠSur": 4676,
      "Ġshared": 4677,
      "Ġrespect": 4678,
      "Ġguarant": 4679,
      "aded": 4680,
      "ĠMel": 4681,
      "ĠLet": 4682,
      "Ġcommission": 4683,
      "Ġdress": 4684,
      "ĠOnce": 4685,
      "ying": 4686,
      "inger": 4687,
      "duc": 4688,
      "Ġappropriate": 4689,
      "ĠMiss": 4690,
      "ĠPac": 4691,
      "iverse": 4692,
      "Pro": 4693,
      "fit": 4694,
      "ĠTheir": 4695,
      "Ġcreative": 4696,
      "Ġfant": 4697,
      "Ġlegisl": 4698,
      "ĠParty": 4699,
      "ĠMass": 4700,
      "apers": 4701,
      "Ġcamera": 4702,
      "lo": 4703,
      "Ġhappen": 4704,
      "Ġviews": 4705,
      "ĠLouis": 4706,
      "ĠFore": 4707,
      "works": 4708,
      "iated": 4709,
      "Ġcentre": 4710,
      "ffee": 4711,
      "Ġlots": 4712,
      "tles": 4713,
      "anged": 4714,
      "Ġextended": 4715,
      "Ġrevealed": 4716,
      "Ġcells": 4717,
      "ĠCy": 4718,
      "ĠBoard": 4719,
      "ĠSaturday": 4720,
      "ĠCamp": 4721,
      "Ġamb": 4722,
      "Ġfederal": 4723,
      "Ġ1990": 4724,
      "ategy": 4725,
      "Ġprepared": 4726,
      "gl": 4727,
      "Ġtruly": 4728,
      "Ġaccomp": 4729,
      "Ġprogress": 4730,
      "Ġcapacity": 4731,
      "Ġthr": 4732,
      "Ġspect": 4733,
      "Ġgain": 4734,
      "win": 4735,
      "ĠPost": 4736,
      "Ġcompar": 4737,
      "Ġpartner": 4738,
      "Ġspring": 4739,
      "iny": 4740,
      "aped": 4741,
      "Ġclaimed": 4742,
      "Ġfeat": 4743,
      "Ġstrategy": 4744,
      "ĠFacebook": 4745,
      "ĠSil": 4746,
      "ĠSociety": 4747,
      "amm": 4748,
      "ĠLight": 4749,
      "ĠLat": 4750,
      "ĠNews": 4751,
      "Ġstatement": 4752,
      "21": 4753,
      "ĠInt": 4754,
      "Ġweekend": 4755,
      "Ġmixed": 4756,
      "ĠCharles": 4757,
      "Ġextensive": 4758,
      "tenance": 4759,
      "Ġpatient": 4760,
      "Ġtrib": 4761,
      "Ġvillage": 4762,
      "night": 4763,
      "Ġflood": 4764,
      "isco": 4765,
      "ports": 4766,
      "That": 4767,
      "rapy": 4768,
      "Ġincome": 4769,
      "Ġacadem": 4770,
      "Ġfinding": 4771,
      "Ġconnection": 4772,
      "Ġfan": 4773,
      "Ġestate": 4774,
      "ĠBusiness": 4775,
      "ogue": 4776,
      "Ġtim": 4777,
      "Ġsmart": 4778,
      "ĠSpanish": 4779,
      "othing": 4780,
      "ped": 4781,
      "Ġenem": 4782,
      "ĠAv": 4783,
      "ologies": 4784,
      "Ġwindow": 4785,
      "Ġwinds": 4786,
      "ship": 4787,
      "Ġdiss": 4788,
      "Ġoutd": 4789,
      "onic": 4790,
      "Ġdivision": 4791,
      "ĠCap": 4792,
      "Ġadding": 4793,
      "85": 4794,
      "Ġdeveloping": 4795,
      "ĠIsrael": 4796,
      "ĠInstitute": 4797,
      "Ġrapid": 4798,
      "oma": 4799,
      "icious": 4800,
      "ria": 4801,
      "ĠVirginia": 4802,
      "Ġperhaps": 4803,
      "coming": 4804,
      "Ġreduced": 4805,
      "velopment": 4806,
      "ocol": 4807,
      "idential": 4808,
      "Ġplants": 4809,
      "ĠWeb": 4810,
      "Ġgift": 4811,
      "ĠProdu": 4812,
      "ĠRussian": 4813,
      "Ġlatter": 4814,
      "ĠDesign": 4815,
      "ĠCD": 4816,
      "Ġflat": 4817,
      "Ġsquare": 4818,
      "Ġsnow": 4819,
      "No": 4820,
      "Ġstone": 4821,
      "Ġparties": 4822,
      "ĠGet": 4823,
      "33": 4824,
      "AD": 4825,
      "Ġbeat": 4826,
      "Ġmentioned": 4827,
      "Ġcraft": 4828,
      "Ġtoward": 4829,
      "ĠHel": 4830,
      "mittee": 4831,
      "ĠFort": 4832,
      "ĠOh": 4833,
      "Ġconclud": 4834,
      "Ġtracks": 4835,
      "Ġeval": 4836,
      "adron": 4837,
      "Ġcere": 4838,
      "--": 4839,
      "Ġstress": 4840,
      "Ġmagn": 4841,
      "ĠInternet": 4842,
      "Ã¶": 4843,
      "Ġcars": 4844,
      "itors": 4845,
      "Ġchap": 4846,
      "oviet": 4847,
      "Ġvisual": 4848,
      "class": 4849,
      "Ġpsych": 4850,
      "Ġjournal": 4851,
      "VD": 4852,
      "Ġclaims": 4853,
      "Ġwithd": 4854,
      "Ġagg": 4855,
      "ĠBecause": 4856,
      "ishes": 4857,
      "Ġpositions": 4858,
      "Ġing": 4859,
      "Ġfiles": 4860,
      "ĠRad": 4861,
      "By": 4862,
      "liam": 4863,
      "Ġhospital": 4864,
      "Ġsteps": 4865,
      "Ġdyn": 4866,
      "Ġentertain": 4867,
      "box": 4868,
      "ĠCentral": 4869,
      "EO": 4870,
      "ĠMur": 4871,
      "verse": 4872,
      "ĠDespite": 4873,
      "ĠAcadem": 4874,
      "ih": 4875,
      "Ġice": 4876,
      "Ġsides": 4877,
      "ĠProf": 4878,
      "ĠVictor": 4879,
      "arsh": 4880,
      "Ġnotice": 4881,
      "ĠForce": 4882,
      "ĠCommission": 4883,
      "Ġfleet": 4884,
      "uit": 4885,
      "akers": 4886,
      "Ġearth": 4887,
      "Ġcards": 4888,
      "Ġbound": 4889,
      "Is": 4890,
      "arc": 4891,
      "Ġwestern": 4892,
      "ĠCur": 4893,
      "Ġawarded": 4894,
      "ĠDu": 4895,
      "Ġtesting": 4896,
      "Ġvirt": 4897,
      "Ġlimit": 4898,
      "Ġnut": 4899,
      "ĠWall": 4900,
      "Ġran": 4901,
      "ĠCanadian": 4902,
      "Un": 4903,
      "Ġdriving": 4904,
      "Ġwear": 4905,
      "aming": 4906,
      "uses": 4907,
      "unction": 4908,
      "agram": 4909,
      "Ġclasses": 4910,
      "44": 4911,
      "Ġstars": 4912,
      "ĠBank": 4913,
      "la": 4914,
      "Ġrooms": 4915,
      "ĠTy": 4916,
      "Ġmemory": 4917,
      "ĠPC": 4918,
      "Ġowner": 4919,
      "Ġpros": 4920,
      "uman": 4921,
      "ĠNavy": 4922,
      "liament": 4923,
      "Ġscenes": 4924,
      "Ġdesigns": 4925,
      "Ġkill": 4926,
      "ita": 4927,
      "friend": 4928,
      "Ġcities": 4929,
      "Ġactual": 4930,
      "ĠWed": 4931,
      "Ġwedding": 4932,
      "Ġleaves": 4933,
      "ĠSecond": 4934,
      "Ġefficient": 4935,
      "ĠJim": 4936,
      "Ġrequires": 4937,
      "rowd": 4938,
      "Ġelement": 4939,
      "Le": 4940,
      "osure": 4941,
      "ĠTour": 4942,
      "Ġlearned": 4943,
      "Ġsenior": 4944,
      "body": 4945,
      "Ġstreet": 4946,
      "Ġcancer": 4947,
      "ograp": 4948,
      "Ġtend": 4949,
      "Ġunc": 4950,
      "Ġeconomy": 4951,
      "ĠTime": 4952,
      "Ġinjury": 4953,
      "ror": 4954,
      "Ġprison": 4955,
      "Ġminute": 4956,
      "Ġterrit": 4957,
      "yard": 4958,
      "ĠHy": 4959,
      "Ġcombined": 4960,
      "Ġschol": 4961,
      "ighter": 4962,
      "ĠOper": 4963,
      "Ġevening": 4964,
      "Ġsail": 4965,
      "essions": 4966,
      "Ġplus": 4967,
      "ĠIN": 4968,
      "enture": 4969,
      "term": 4970,
      "Ġattacks": 4971,
      "Ġexperiences": 4972,
      "Ġstandards": 4973,
      "Ġsolid": 4974,
      "ĠSom": 4975,
      "ĠPan": 4976,
      "Ġimpl": 4977,
      "Ġsets": 4978,
      "Ġcalls": 4979,
      "Ġtechnical": 4980,
      "rative": 4981,
      "Ġiron": 4982,
      "estic": 4983,
      "Ġrefle": 4984,
      "eria": 4985,
      "actions": 4986,
      "iled": 4987,
      "ĠLu": 4988,
      "bury": 4989,
      "ĠPlan": 4990,
      "Ġpayment": 4991,
      "Ġdetermine": 4992,
      "Ġplays": 4993,
      "Ġconnected": 4994,
      "ĠItalian": 4995,
      "ĠVol": 4996,
      "enses": 4997,
      "enth": 4998,
      "Ġoperating": 4999,
      "Ġseconds": 5000,
      "Ġforest": 5001,
      "Ġcitiz": 5002,
      "roid": 5003,
      "Ġrefe": 5004,
      "Ġexpress": 5005,
      "Ġofficers": 5006,
      "while": 5007,
      "EL": 5008,
      "water": 5009,
      "ĠSa": 5010,
      "Ġlooked": 5011,
      "Ġsharing": 5012,
      "Ġrule": 5013,
      "iral": 5014,
      "PS": 5015,
      "Ġmist": 5016,
      "Ġtechniques": 5017,
      "Ġnewsp": 5018,
      "ĠMer": 5019,
      "Ġsevere": 5020,
      "ani": 5021,
      "Ġbroadcast": 5022,
      "Ġconference": 5023,
      "oration": 5024,
      "Ġunable": 5025,
      "phone": 5026,
      "orrow": 5027,
      "Ġaccepted": 5028,
      "ĠSea": 5029,
      "orter": 5030,
      "ĠIre": 5031,
      "agon": 5032,
      "Ġunf": 5033,
      "ÃŃ": 5034,
      "Ġtor": 5035,
      "During": 5036,
      "Ġcomfortable": 5037,
      "ĠBritain": 5038,
      "ato": 5039,
      "ĠScot": 5040,
      "Ġmur": 5041,
      "Ġdance": 5042,
      "ĠWindows": 5043,
      "Ġfamous": 5044,
      "Do": 5045,
      "Ġcombination": 5046,
      "resp": 5047,
      "ĠBet": 5048,
      "Ġretail": 5049,
      "ĠTHE": 5050,
      "ĠSoviet": 5051,
      "ĠValley": 5052,
      "Ġwants": 5053,
      "Ġtypically": 5054,
      "Ġproperties": 5055,
      "Ġbedroom": 5056,
      "Ġcore": 5057,
      "ommod": 5058,
      "astern": 5059,
      "Ġpul": 5060,
      "ordin": 5061,
      "ĠTop": 5062,
      "Ġcolour": 5063,
      "ĠÂ°": 5064,
      "Ġjoint": 5065,
      "active": 5066,
      "ĠTest": 5067,
      "ĠTeam": 5068,
      "Ġschedule": 5069,
      "Ġbegins": 5070,
      "Ġseeing": 5071,
      "inding": 5072,
      "ĠThanks": 5073,
      "ini": 5074,
      "inch": 5075,
      "Ġfaith": 5076,
      "Se": 5077,
      "ĠRev": 5078,
      "igation": 5079,
      "ĠCro": 5080,
      "umber": 5081,
      "Ã¼": 5082,
      "Ġpraised": 5083,
      "78": 5084,
      "Ġeth": 5085,
      "mi": 5086,
      "Ġmale": 5087,
      "ĠFound": 5088,
      "osis": 5089,
      "Ġearned": 5090,
      "Ġbaby": 5091,
      "Ġfashion": 5092,
      "Ġhouses": 5093,
      "ĠLong": 5094,
      "ĠWhe": 5095,
      "Ġcontrast": 5096,
      "encies": 5097,
      "Ġ1999": 5098,
      "ĠAngeles": 5099,
      "Ġaccident": 5100,
      "ĠAfrican": 5101,
      "Ġpal": 5102,
      "Ġlived": 5103,
      "rad": 5104,
      "ĠMa": 5105,
      "asure": 5106,
      "ĠSant": 5107,
      "ĠRet": 5108,
      "ĠIT": 5109,
      "Ġapplied": 5110,
      "ttp": 5111,
      "rete": 5112,
      "Ġattra": 5113,
      "Ġ1970": 5114,
      "Ġtrees": 5115,
      "Ġrespectively": 5116,
      "uration": 5117,
      "clusion": 5118,
      "Ġcommunication": 5119,
      "ĠProgram": 5120,
      "64": 5121,
      "Ġconver": 5122,
      "ĠWater": 5123,
      "atever": 5124,
      "ominated": 5125,
      "IG": 5126,
      "Ġshowing": 5127,
      ".)": 5128,
      "Ġdiscover": 5129,
      "Ġegg": 5130,
      "look": 5131,
      "OL": 5132,
      "Ġproceed": 5133,
      "eder": 5134,
      "ĠPacific": 5135,
      "Ġrein": 5136,
      "ĠPenn": 5137,
      "Ġreligious": 5138,
      "adium": 5139,
      "ĠLife": 5140,
      "Ġnegative": 5141,
      "arian": 5142,
      "These": 5143,
      "ads": 5144,
      "Ġedition": 5145,
      "Ġorganizations": 5146,
      "Ġcalling": 5147,
      "Ġthanks": 5148,
      "itness": 5149,
      "Ġreferred": 5150,
      "Ġfunds": 5151,
      "Ġhighway": 5152,
      "Ġvideos": 5153,
      "tion": 5154,
      "Ġ189": 5155,
      "Ġrob": 5156,
      "ffered": 5157,
      "iders": 5158,
      "Ġremove": 5159,
      "Ġsmooth": 5160,
      "ĠKh": 5161,
      "Ġfuel": 5162,
      "Ġ1980": 5163,
      "ester": 5164,
      "ĠTim": 5165,
      "Ġfocused": 5166,
      "ĠEmp": 5167,
      "ĠCommittee": 5168,
      "fr": 5169,
      "atre": 5170,
      "Ġconven": 5171,
      "BA": 5172,
      "Ġselling": 5173,
      "Ġcommunities": 5174,
      "ĠMond": 5175,
      "Ġillust": 5176,
      "Ġgarden": 5177,
      "IP": 5178,
      "ĠResearch": 5179,
      "Ġgreatest": 5180,
      "Ġfactors": 5181,
      "Ġsweet": 5182,
      "CC": 5183,
      "Ġvalues": 5184,
      "ĠJose": 5185,
      "Ġportion": 5186,
      "Ġloan": 5187,
      "ructure": 5188,
      "Ġcaptured": 5189,
      "iration": 5190,
      "Ġupgr": 5191,
      "Ġmanage": 5192,
      "Ġconnect": 5193,
      "Ġdiet": 5194,
      "Don": 5195,
      "Ġdraft": 5196,
      "Ġinches": 5197,
      "Ġorigin": 5198,
      "pet": 5199,
      "ias": 5200,
      "illa": 5201,
      "Ġappointed": 5202,
      "ĠStr": 5203,
      "Ġexperiment": 5204,
      "anes": 5205,
      "irmed": 5206,
      "77": 5207,
      "Ġinstalled": 5208,
      "kin": 5209,
      "ensity": 5210,
      "ĠSupp": 5211,
      "iner": 5212,
      "Ġexplore": 5213,
      "ĠDistrict": 5214,
      "ĠSar": 5215,
      "ĠLand": 5216,
      "ucky": 5217,
      "nam": 5218,
      "ĠMartin": 5219,
      "Ġdrum": 5220,
      "Ġwine": 5221,
      "Ġlocations": 5222,
      "Ġdecre": 5223,
      "Ġfill": 5224,
      "urban": 5225,
      "Ġbeach": 5226,
      "ĠEduc": 5227,
      "Ġfeaturing": 5228,
      "Ġmel": 5229,
      "Ġaccommod": 5230,
      "Ġrelax": 5231,
      "66": 5232,
      "ĠLike": 5233,
      "Ġnearby": 5234,
      "Ġidentified": 5235,
      "Ġencoun": 5236,
      "ĠÐ": 5237,
      "ĠDown": 5238,
      "Ġtrial": 5239,
      "Ġsettle": 5240,
      "Ġcopies": 5241,
      ");": 5242,
      "Ġsister": 5243,
      "Ġnucle": 5244,
      "Ġsubs": 5245,
      "Ġmap": 5246,
      "Ġtalking": 5247,
      "Ġquant": 5248,
      "Ġmaintenance": 5249,
      "Ġdocuments": 5250,
      "Ġkil": 5251,
      "Ġenjoyed": 5252,
      "Ġbalance": 5253,
      "ano": 5254,
      "ĠChild": 5255,
      "Ġformat": 5256,
      "Ġkeeping": 5257,
      "Ġcrowd": 5258,
      "ĠWork": 5259,
      "Ġcm": 5260,
      "Ġbomb": 5261,
      "ĠSong": 5262,
      "amily": 5263,
      "onds": 5264,
      "ĠCast": 5265,
      "ĠAny": 5266,
      "ĠForm": 5267,
      "ifications": 5268,
      "bridge": 5269,
      "lymp": 5270,
      "):": 5271,
      "ĠBow": 5272,
      "Ġdestroyed": 5273,
      "Ġalternative": 5274,
      "Ġring": 5275,
      "ĠAnother": 5276,
      "Ġresulting": 5277,
      "Ġsport": 5278,
      "ĠBlue": 5279,
      "Ġox": 5280,
      "alle": 5281,
      "Ġdamaged": 5282,
      "Ġmaybe": 5283,
      "Ġvehicles": 5284,
      "olved": 5285,
      "ĠLo": 5286,
      "Ġcoach": 5287,
      "erry": 5288,
      "inder": 5289,
      "Ġattract": 5290,
      "Ġteaching": 5291,
      "ulf": 5292,
      "Ġpossibly": 5293,
      "Ġcup": 5294,
      "ilding": 5295,
      "iences": 5296,
      "RA": 5297,
      "inson": 5298,
      "Ġvolunte": 5299,
      "Ġfavour": 5300,
      "ĠCath": 5301,
      "ĠCross": 5302,
      "Ġfriendly": 5303,
      "Ġoccasion": 5304,
      "Ġvision": 5305,
      "Ġrich": 5306,
      "Ġoccurred": 5307,
      "ĠGovernment": 5308,
      "Ġbright": 5309,
      "Ġserving": 5310,
      "Acc": 5311,
      "Ġarrest": 5312,
      "Ġrelatively": 5313,
      "Ġhun": 5314,
      "Ġpush": 5315,
      "Ġdriver": 5316,
      "ala": 5317,
      "Ġedge": 5318,
      "Ġconducted": 5319,
      "gn": 5320,
      "imens": 5321,
      "oves": 5322,
      "Ġton": 5323,
      "Ġbiggest": 5324,
      "ĠIreland": 5325,
      "Ġjobs": 5326,
      "ĠTri": 5327,
      "vell": 5328,
      "ĠDet": 5329,
      "Ġbrain": 5330,
      "isher": 5331,
      "Ġhurricane": 5332,
      "icted": 5333,
      "org": 5334,
      "isted": 5335,
      "gency": 5336,
      "ĠHaw": 5337,
      "with": 5338,
      "Ġgone": 5339,
      "ĠJo": 5340,
      "Ġbought": 5341,
      "Ġdial": 5342,
      "state": 5343,
      "Ġchair": 5344,
      "ĠOb": 5345,
      "Ġincred": 5346,
      "Ġexpensive": 5347,
      "Ġotherwise": 5348,
      "ĠVe": 5349,
      "Ġflex": 5350,
      "eless": 5351,
      "Ġguid": 5352,
      "Ġrecommended": 5353,
      "Ġofficials": 5354,
      "ĠMot": 5355,
      "ls": 5356,
      "arters": 5357,
      "Ġsymbol": 5358,
      "Ġowned": 5359,
      "Ġlargely": 5360,
      "Ġlyrics": 5361,
      "Ġtons": 5362,
      "Ġfifth": 5363,
      "Ġstarts": 5364,
      "point": 5365,
      "Ġbreat": 5366,
      "Ġchosen": 5367,
      "Ġbutton": 5368,
      "Ġmatches": 5369,
      "ĠMuseum": 5370,
      "phas": 5371,
      "ĠMinister": 5372,
      "Ġofficer": 5373,
      "gal": 5374,
      "ym": 5375,
      "bu": 5376,
      "Ġsuffered": 5377,
      "Ġindustrial": 5378,
      "Ġcompos": 5379,
      "ĠScience": 5380,
      "Ġexclusive": 5381,
      "Ġ1998": 5382,
      "Ġpolic": 5383,
      "ĠBoy": 5384,
      "ĠChris": 5385,
      "Ġ32": 5386,
      "ĠDVD": 5387,
      "Ġperformances": 5388,
      "Ġdetermined": 5389,
      "Ġlaws": 5390,
      "Ġholiday": 5391,
      "Ġcorner": 5392,
      "Ġrough": 5393,
      "ĠOlymp": 5394,
      "ĠPeople": 5395,
      "ĠTem": 5396,
      "Ġtruth": 5397,
      "34": 5398,
      "ĠMicro": 5399,
      "umin": 5400,
      "ultural": 5401,
      "ĠShow": 5402,
      "Ġdistrict": 5403,
      "32": 5404,
      "iano": 5405,
      "gers": 5406,
      "icians": 5407,
      "Ġtail": 5408,
      "Ġcart": 5409,
      "Ġthousands": 5410,
      "Ġaffected": 5411,
      "Ġscale": 5412,
      "Ġcontemporary": 5413,
      "arge": 5414,
      "ĠTre": 5415,
      "allery": 5416,
      "Ġhorse": 5417,
      "36": 5418,
      "ĠDen": 5419,
      "ansion": 5420,
      "Ġvolume": 5421,
      "unning": 5422,
      "Ġfurniture": 5423,
      "Ġpull": 5424,
      "ĠDar": 5425,
      "Ġvisitors": 5426,
      "ĠPublic": 5427,
      "ĠJackson": 5428,
      "gment": 5429,
      "outs": 5430,
      "Ġdoctor": 5431,
      "Ġimportance": 5432,
      "Ġapart": 5433,
      "Ġign": 5434,
      "Ġhandle": 5435,
      "Ġleadership": 5436,
      "gery": 5437,
      "Ġwalls": 5438,
      "iency": 5439,
      "ĠPower": 5440,
      "Ġcolors": 5441,
      "Ġmulti": 5442,
      "Ġclassic": 5443,
      "ĠFire": 5444,
      "Ġcourses": 5445,
      "ĠBost": 5446,
      "ker": 5447,
      "Ġchanging": 5448,
      "ĠWal": 5449,
      "Ġdefeated": 5450,
      "ushed": 5451,
      "Ġitem": 5452,
      "Ġcomments": 5453,
      "Ġhappened": 5454,
      "Ġassistance": 5455,
      "care": 5456,
      "igade": 5457,
      "Ġnegot": 5458,
      "Ġmo": 5459,
      "ulture": 5460,
      "ĠAcademy": 5461,
      "Ġeastern": 5462,
      "Ġversions": 5463,
      "ĠZeal": 5464,
      "life": 5465,
      "ingu": 5466,
      "Ġdivid": 5467,
      "Ġmainly": 5468,
      "Ġ300": 5469,
      "Ġproducer": 5470,
      "azz": 5471,
      "Ġvote": 5472,
      "Ġdepartment": 5473,
      "Ġcloud": 5474,
      "Ġlabel": 5475,
      "Ġspecifically": 5476,
      "Ġcabin": 5477,
      "aine": 5478,
      "ĠItaly": 5479,
      "Ġflav": 5480,
      "ola": 5481,
      "Ġcoffee": 5482,
      "Ġbehavior": 5483,
      "Ġtips": 5484,
      "Ġtransform": 5485,
      "roud": 5486,
      "ĠKent": 5487,
      "cont": 5488,
      "Ġpractices": 5489,
      "Ġworldwide": 5490,
      "Ġreality": 5491,
      "utch": 5492,
      "Ġcheap": 5493,
      "otic": 5494,
      "Ġexperts": 5495,
      "Ġpropos": 5496,
      "ĠOl": 5497,
      "cers": 5498,
      "Ġtheory": 5499,
      "ĠEdward": 5500,
      "Ġlandsc": 5501,
      "Ġplot": 5502,
      "Ġsinger": 5503,
      "ĠDirector": 5504,
      "Ġphil": 5505,
      "Ġsurrounding": 5506,
      "stone": 5507,
      "Ġassum": 5508,
      "Ġimproved": 5509,
      "Ġorders": 5510,
      "Ġcatch": 5511,
      "Ġcris": 5512,
      "Ġfighting": 5513,
      "urning": 5514,
      "Ġthank": 5515,
      "Ġpromote": 5516,
      "Ġcra": 5517,
      "Ġelimin": 5518,
      "ĠZealand": 5519,
      "Ġtwice": 5520,
      "Ġceremon": 5521,
      "Ġveget": 5522,
      "going": 5523,
      "Ġresponsibility": 5524,
      "under": 5525,
      "Ġcolon": 5526,
      "Ġconcerns": 5527,
      "ternal": 5528,
      "Ġflo": 5529,
      "othes": 5530,
      "Ġconcert": 5531,
      "Ġstick": 5532,
      "Ġguest": 5533,
      "Ġpassion": 5534,
      "Ġrear": 5535,
      "Ġboat": 5536,
      "Ġepisodes": 5537,
      "Ã³": 5538,
      "ĠCard": 5539,
      "ĠHead": 5540,
      "pm": 5541,
      "orough": 5542,
      "ĠParis": 5543,
      "Ġanimal": 5544,
      "Ġdiagn": 5545,
      "Ġjump": 5546,
      "ivered": 5547,
      "inent": 5548,
      "lim": 5549,
      "ĠWell": 5550,
      "Ġchief": 5551,
      "Ġfrequently": 5552,
      "text": 5553,
      "ĠSeries": 5554,
      "Ġaren": 5555,
      "Ġwidely": 5556,
      "Ġven": 5557,
      "37": 5558,
      "rehens": 5559,
      "Ġends": 5560,
      "Ġmarriage": 5561,
      "Ġchallenges": 5562,
      "Ġuniversity": 5563,
      "Ġapproved": 5564,
      "rick": 5565,
      "Ġfailure": 5566,
      "Ġbattles": 5567,
      "Ġattended": 5568,
      "Ġpit": 5569,
      "Ġlabor": 5570,
      "esome": 5571,
      "ĠMexico": 5572,
      "39": 5573,
      "ician": 5574,
      "Ġsounds": 5575,
      "Ġrelationships": 5576,
      "TV": 5577,
      "Ġpoly": 5578,
      "Ġfunding": 5579,
      "Ġcultural": 5580,
      "ĠSand": 5581,
      "MA": 5582,
      "no": 5583,
      "ĠMarket": 5584,
      "38": 5585,
      "Ġexchange": 5586,
      "TS": 5587,
      "Ġtrail": 5588,
      "Ġpurchased": 5589,
      "Ġinternal": 5590,
      "ĠMonday": 5591,
      "omer": 5592,
      "po": 5593,
      "ĠGar": 5594,
      "....": 5595,
      "Ġsym": 5596,
      "Ġrestaurant": 5597,
      "gypt": 5598,
      "Ġtwenty": 5599,
      "Ġvalid": 5600,
      "Ġopinion": 5601,
      "equ": 5602,
      "Ġdeck": 5603,
      "Ġmanner": 5604,
      "Ġseat": 5605,
      "Ġmedium": 5606,
      "Ġresulted": 5607,
      "Ġcomposed": 5608,
      "Ġsupporting": 5609,
      "Ġobvious": 5610,
      "oned": 5611,
      "oty": 5612,
      "ĠJones": 5613,
      "Ġintellig": 5614,
      "eper": 5615,
      "uable": 5616,
      "Ġprimarily": 5617,
      "Ġdecide": 5618,
      "ĠBob": 5619,
      "Ġsuitable": 5620,
      "Ġ52": 5621,
      "Ġshel": 5622,
      "ĠPress": 5623,
      "Ġ1997": 5624,
      "ĠQueen": 5625,
      "ĠFle": 5626,
      "Ġexercise": 5627,
      "Ġwaiting": 5628,
      "sembly": 5629,
      "ounded": 5630,
      "Ġexplained": 5631,
      "Â®": 5632,
      "Ġmort": 5633,
      "Ġupdate": 5634,
      "ĠÎ": 5635,
      "ĠIndust": 5636,
      "top": 5637,
      "met": 5638,
      "Ġaspects": 5639,
      "Ġhero": 5640,
      "Ġfacility": 5641,
      "mosp": 5642,
      "ras": 5643,
      "Ġtot": 5644,
      "soft": 5645,
      "Ġultimately": 5646,
      "Ġwriters": 5647,
      "Sp": 5648,
      "rovers": 5649,
      "utation": 5650,
      "They": 5651,
      "ĠFox": 5652,
      "Ġrot": 5653,
      "Ġfounded": 5654,
      "Ġeditor": 5655,
      "Ne": 5656,
      "Ġaid": 5657,
      "Ġsam": 5658,
      "Ġ(\"": 5659,
      "Ġspending": 5660,
      "awn": 5661,
      "Ġdelay": 5662,
      "ĠBack": 5663,
      "Ġinstrument": 5664,
      "ears": 5665,
      "Ġshopping": 5666,
      "Ġassigned": 5667,
      "Ġwindows": 5668,
      "Ġsoldiers": 5669,
      "iliar": 5670,
      "itt": 5671,
      "ĠBoston": 5672,
      "Ġperman": 5673,
      "Ġidentify": 5674,
      "Ġhistorical": 5675,
      "Ġbroken": 5676,
      "Ġsupplies": 5677,
      "oto": 5678,
      "ĠDemocr": 5679,
      "Ġdat": 5680,
      "Ġprompt": 5681,
      "Ġsubsequently": 5682,
      "Ġwire": 5683,
      "Ġapparent": 5684,
      "Ġphotograph": 5685,
      "rich": 5686,
      "ĠDev": 5687,
      "Ġinstru": 5688,
      "Ġdiscount": 5689,
      "wing": 5690,
      "ario": 5691,
      "Ġadministration": 5692,
      "Ġhousehold": 5693,
      "ĠManagement": 5694,
      "ĠMichigan": 5695,
      "New": 5696,
      "een": 5697,
      "ĠJul": 5698,
      "Ġentr": 5699,
      "Ġride": 5700,
      "ĠUSA": 5701,
      "ĠJeff": 5702,
      "arp": 5703,
      "Ġenvironmental": 5704,
      "Ġdropped": 5705,
      "Ġalongside": 5706,
      "Ġcoverage": 5707,
      "Ġsignificantly": 5708,
      "Ġessay": 5709,
      "Ġsector": 5710,
      "ĠCharl": 5711,
      "Ġ|": 5712,
      "ĠEngine": 5713,
      "Ġcategory": 5714,
      "Ġrise": 5715,
      "ocal": 5716,
      "Ġbrown": 5717,
      "Ġchemical": 5718,
      "Ġdeploy": 5719,
      "Ġaband": 5720,
      "Ġfreed": 5721,
      "Ġsto": 5722,
      "Ġemphas": 5723,
      "Now": 5724,
      "fin": 5725,
      "Ġban": 5726,
      "Ġlinks": 5727,
      "ĠRh": 5728,
      "ĠElect": 5729,
      "yan": 5730,
      "irty": 5731,
      "ĠRail": 5732,
      "ĠAmericans": 5733,
      "Ġvan": 5734,
      "Ġheight": 5735,
      "Ġdelivered": 5736,
      "Ġholding": 5737,
      "Ġwelcome": 5738,
      "55": 5739,
      "ĠSee": 5740,
      "ĠFestival": 5741,
      "Ġrating": 5742,
      "Ġsilver": 5743,
      "omy": 5744,
      "Ġobserved": 5745,
      "Ġbon": 5746,
      "Ġacid": 5747,
      "anna": 5748,
      "Ġdetailed": 5749,
      "fast": 5750,
      "Ġagent": 5751,
      "rim": 5752,
      "ĠFilm": 5753,
      "ĠRel": 5754,
      "Ġcommitted": 5755,
      "ĠIll": 5756,
      "ĠGeorg": 5757,
      "Ġencourage": 5758,
      "Ġlose": 5759,
      "hi": 5760,
      "Ġconfirmed": 5761,
      "cious": 5762,
      "Ġtom": 5763,
      "Ġlock": 5764,
      "Ġtells": 5765,
      "Ġprofessionals": 5766,
      "Ġscheduled": 5767,
      "ĠDou": 5768,
      "Ġ36": 5769,
      "arly": 5770,
      "what": 5771,
      "Ġyards": 5772,
      "IA": 5773,
      "ST": 5774,
      "ĠStep": 5775,
      "ĠHor": 5776,
      "Ġresistance": 5777,
      "ĠVan": 5778,
      "Ġtele": 5779,
      "Ġending": 5780,
      "prise": 5781,
      "idden": 5782,
      "adel": 5783,
      "Ġranked": 5784,
      "Ġneighbor": 5785,
      "ompl": 5786,
      "Ġserver": 5787,
      "Ġcouldn": 5788,
      "Ġfilled": 5789,
      "Ġfra": 5790,
      "ĠGal": 5791,
      "Ġpassing": 5792,
      "Ġaudio": 5793,
      "Ġfigures": 5794,
      "which": 5795,
      "free": 5796,
      "zer": 5797,
      "inem": 5798,
      "Ġbag": 5799,
      "ĠEgypt": 5800,
      "Ġspeech": 5801,
      "Ġcreation": 5802,
      "199": 5803,
      "Ġturns": 5804,
      "She": 5805,
      "isa": 5806,
      "alog": 5807,
      "Ġweak": 5808,
      "Ġmissing": 5809,
      "ĠSwed": 5810,
      "Ġleads": 5811,
      "Ġsuccessfully": 5812,
      "Ġsyn": 5813,
      "ĠDec": 5814,
      "Ġagency": 5815,
      "Ġaccounts": 5816,
      "hop": 5817,
      "ĠAC": 5818,
      "Ġplanet": 5819,
      "alls": 5820,
      "Ġbeauty": 5821,
      "Ġfee": 5822,
      "ĠBeach": 5823,
      "Ġteacher": 5824,
      "Ġcolumn": 5825,
      "Ġwaste": 5826,
      "Ġdating": 5827,
      "zen": 5828,
      "oga": 5829,
      "Ġprotein": 5830,
      "Ġ1960": 5831,
      "ĠAtlantic": 5832,
      "Some": 5833,
      "Ġast": 5834,
      "Ġsuc": 5835,
      "Ġic": 5836,
      "ĠStone": 5837,
      "Ġconstructed": 5838,
      "Ġsac": 5839,
      "Ġsurvey": 5840,
      "Ġur": 5841,
      "ĠCorps": 5842,
      "ĠMax": 5843,
      "obe": 5844,
      "Ġcorresp": 5845,
      "stream": 5846,
      "Ġath": 5847,
      "Ġcombat": 5848,
      "Ġancient": 5849,
      "From": 5850,
      "oured": 5851,
      "ails": 5852,
      "oted": 5853,
      "bur": 5854,
      "Ġyouth": 5855,
      "ĠÑ": 5856,
      "Ġ?": 5857,
      "Ġfly": 5858,
      "ĠWay": 5859,
      "Ġplenty": 5860,
      "Ġdecisions": 5861,
      "Ġ1995": 5862,
      "Ġingred": 5863,
      "Ġreceiving": 5864,
      "Ġrecip": 5865,
      "Ġconcer": 5866,
      "kes": 5867,
      "Ġhearing": 5868,
      "ocated": 5869,
      "Ġpanel": 5870,
      "Ġmouth": 5871,
      "ĠGirl": 5872,
      "ĠUN": 5873,
      "Ġelected": 5874,
      "Ġmarked": 5875,
      "ĠEducation": 5876,
      "ban": 5877,
      "ii": 5878,
      "Ġreplacement": 5879,
      "ION": 5880,
      "Ġwid": 5881,
      "ownt": 5882,
      "Ġswim": 5883,
      "Ġcapture": 5884,
      "Ġsuit": 5885,
      "Ġshut": 5886,
      "plate": 5887,
      "ĠBridge": 5888,
      "ĠWilliams": 5889,
      "Ġatmosp": 5890,
      "Ġbirds": 5891,
      "ĠFurther": 5892,
      "Ġgeneration": 5893,
      "Ġdefense": 5894,
      "etime": 5895,
      "Ġdefend": 5896,
      "ĠEmpire": 5897,
      "__": 5898,
      "Ġrub": 5899,
      "Ġrelevant": 5900,
      "tra": 5901,
      "Ġpolicies": 5902,
      "76": 5903,
      "86": 5904,
      "Ġpun": 5905,
      "ĠFollowing": 5906,
      "Ġsucceed": 5907,
      "ifts": 5908,
      "49": 5909,
      "word": 5910,
      "real": 5911,
      "nament": 5912,
      "Ġfold": 5913,
      "Ġconsequ": 5914,
      "ĠFour": 5915,
      "Ġbuying": 5916,
      "Ġthrow": 5917,
      "Ġliqu": 5918,
      "Ġfields": 5919,
      "uing": 5920,
      "Ġwilling": 5921,
      "OW": 5922,
      "Ġyellow": 5923,
      "ĠVer": 5924,
      "ĠIII": 5925,
      "Ġinstance": 5926,
      "ylvan": 5927,
      "hab": 5928,
      "lines": 5929,
      "Ġadults": 5930,
      "stein": 5931,
      "Ġlosing": 5932,
      "ĠApple": 5933,
      "ĠSpecial": 5934,
      "Ġspons": 5935,
      "Ġroy": 5936,
      "Ġinterse": 5937,
      "enger": 5938,
      "Ġnative": 5939,
      "ĠGreek": 5940,
      "ĠCarolina": 5941,
      "Ġgrew": 5942,
      "phy": 5943,
      "Ġattempted": 5944,
      "Ġwalking": 5945,
      "aser": 5946,
      "ĠJud": 5947,
      "Ġvess": 5948,
      "Ġguests": 5949,
      "Ġclearly": 5950,
      "Ġcleaning": 5951,
      "Ad": 5952,
      "Ġdefeat": 5953,
      "abilities": 5954,
      "Ġgoods": 5955,
      "Ġstanding": 5956,
      "Ġcircum": 5957,
      "Ġplate": 5958,
      "Ġdoors": 5959,
      "thur": 5960,
      "ua": 5961,
      "osoph": 5962,
      "Ġ1996": 5963,
      "Ġpackage": 5964,
      "hetic": 5965,
      "ĠEll": 5966,
      "ĠColor": 5967,
      "Ġexecutive": 5968,
      "Ġpurposes": 5969,
      "Ġdistribution": 5970,
      "DF": 5971,
      "Ġconflict": 5972,
      "bar": 5973,
      "anchester": 5974,
      "Ġforget": 5975,
      "Ġcitizens": 5976,
      "urt": 5977,
      "anda": 5978,
      "Ġseek": 5979,
      "roduction": 5980,
      "ĠOpen": 5981,
      "Ġsubstant": 5982,
      "Ġsalt": 5983,
      "ortunately": 5984,
      "Ġcorporate": 5985,
      "ĠKenn": 5986,
      "ĠDi": 5987,
      "icken": 5988,
      "Ġportray": 5989,
      "Ġrom": 5990,
      "Ġmarkets": 5991,
      "Ġstructures": 5992,
      "Ġmeasures": 5993,
      "89": 5994,
      "ĠColumb": 5995,
      "Ġtag": 5996,
      "Ġhabit": 5997,
      "Ġsynt": 5998,
      "Ġsplit": 5999,
      "lers": 6000,
      "Ġretire": 6001,
      "war": 6002,
      "ĠSouthern": 6003,
      "ĠUl": 6004,
      "ĠSir": 6005,
      "Ġvary": 6006,
      "taining": 6007,
      "Bl": 6008,
      "LE": 6009,
      "ĠToday": 6010,
      "iments": 6011,
      "Ġdepression": 6012,
      "rid": 6013,
      "uten": 6014,
      "Ġcontrovers": 6015,
      "Ġbelong": 6016,
      "Ġhighlight": 6017,
      "Ġchose": 6018,
      "Ġsole": 6019,
      "Ġminimum": 6020,
      "Ġobtain": 6021,
      "Ġcauses": 6022,
      "ĠSpring": 6023,
      "Ġfabric": 6024,
      "Ġraise": 6025,
      "Ġmode": 6026,
      "ĠAsia": 6027,
      "Ġinvolve": 6028,
      "TC": 6029,
      "Ġcounty": 6030,
      "track": 6031,
      "Ġwave": 6032,
      "iability": 6033,
      "ĠBC": 6034,
      "Ġpainting": 6035,
      "noon": 6036,
      "Ġkid": 6037,
      "ĠMaster": 6038,
      "Ġregularly": 6039,
      "Ġstret": 6040,
      "ĠOx": 6041,
      "cles": 6042,
      "Ġuns": 6043,
      "Ġattrib": 6044,
      "Please": 6045,
      "Ġprocessing": 6046,
      "BS": 6047,
      "col": 6048,
      "Ġelev": 6049,
      "Ġprocesses": 6050,
      "ĠRussia": 6051,
      "ait": 6052,
      "ĠLater": 6053,
      "âĢĿ,": 6054,
      "Ġstores": 6055,
      "ugh": 6056,
      "Ġnor": 6057,
      "Ġcontained": 6058,
      "Ġ180": 6059,
      "Ġachieved": 6060,
      "hire": 6061,
      "Ġvisited": 6062,
      "ĠAP": 6063,
      "Ġdesire": 6064,
      "Ġaccompl": 6065,
      "ĠBefore": 6066,
      "ĠFred": 6067,
      "According": 6068,
      "ye": 6069,
      "press": 6070,
      "ampion": 6071,
      "Ġexpressed": 6072,
      "Ġinstallation": 6073,
      "Ġwatching": 6074,
      "Ġnewly": 6075,
      "Ġhaven": 6076,
      "isters": 6077,
      "Ġinterior": 6078,
      "Sc": 6079,
      "Ġinfe": 6080,
      "ĠJoe": 6081,
      "Ġunless": 6082,
      "ĠYoung": 6083,
      "Although": 6084,
      "ĠLittle": 6085,
      "ĠCas": 6086,
      "ĠCapt": 6087,
      "Ġarms": 6088,
      "ĠCat": 6089,
      "itional": 6090,
      "Ġentirely": 6091,
      "Åį": 6092,
      "Ġfollows": 6093,
      "Ġacademic": 6094,
      "Ġbrows": 6095,
      "ĠProject": 6096,
      "Ġproud": 6097,
      "ĠPen": 6098,
      "ĠPoint": 6099,
      "79": 6100,
      "erg": 6101,
      "Ġclosely": 6102,
      "Ġauthority": 6103,
      "itled": 6104,
      "Ġmir": 6105,
      "ĠDri": 6106,
      "Ġexamples": 6107,
      "Ġcausing": 6108,
      "ĠChief": 6109,
      "Ġteachers": 6110,
      "mond": 6111,
      "Ġcollected": 6112,
      "ĠSecret": 6113,
      "Ġcomponents": 6114,
      "UR": 6115,
      "coh": 6116,
      "Ġcaught": 6117,
      "ideo": 6118,
      "Ġnav": 6119,
      "va": 6120,
      "Ġfruit": 6121,
      "Ġdeclared": 6122,
      "Ġbodies": 6123,
      "31": 6124,
      "ĠMiddle": 6125,
      "Ġprepare": 6126,
      "IV": 6127,
      "Ġbathroom": 6128,
      "uations": 6129,
      "weight": 6130,
      "elled": 6131,
      "Ġsympt": 6132,
      "zil": 6133,
      "Ġreform": 6134,
      "Ġca": 6135,
      "Ġattacked": 6136,
      "Ġ00": 6137,
      "Ġroles": 6138,
      "Ġannounce": 6139,
      "ĠThrough": 6140,
      "ĠMach": 6141,
      "Ġclimate": 6142,
      "Ġment": 6143,
      "ĠStand": 6144,
      "Ġobl": 6145,
      "idering": 6146,
      "ĠGames": 6147,
      "apes": 6148,
      "Ġconfig": 6149,
      "Ġarticles": 6150,
      "apore": 6151,
      "Ġinterests": 6152,
      "ĠBillboard": 6153,
      "Ġgained": 6154,
      "Ġattempts": 6155,
      "Ġtaste": 6156,
      "Ġherself": 6157,
      "orge": 6158,
      "Ġmut": 6159,
      "Ġorganized": 6160,
      "Ġemp": 6161,
      "ursday": 6162,
      "ĠMid": 6163,
      "oval": 6164,
      "Ġseemed": 6165,
      "Ġreaching": 6166,
      "ĠFair": 6167,
      "mith": 6168,
      "Ġadvertising": 6169,
      "Ġsexual": 6170,
      "Ġdining": 6171,
      "lets": 6172,
      "Ġlux": 6173,
      "ava": 6174,
      "Ġwaters": 6175,
      "eller": 6176,
      "inity": 6177,
      "Ġdie": 6178,
      "Ġkick": 6179,
      "Ġlayer": 6180,
      "oker": 6181,
      "Ġdecades": 6182,
      "Ġfunctions": 6183,
      "Ġvocal": 6184,
      "ĠArts": 6185,
      "Ġbot": 6186,
      "Ġ1994": 6187,
      "ĠRecords": 6188,
      "ĠLee": 6189,
      "Ġswitch": 6190,
      "rehensive": 6191,
      "Ġrecognized": 6192,
      "agers": 6193,
      "Ġcomplic": 6194,
      "Ġbreed": 6195,
      "Ġdepending": 6196,
      "ĠKen": 6197,
      "Ġconfirm": 6198,
      "48": 6199,
      "46": 6200,
      "ĠMen": 6201,
      "Ġwhatever": 6202,
      "umes": 6203,
      "Ġformation": 6204,
      "Ġbringing": 6205,
      "Here": 6206,
      "Ġhonest": 6207,
      "Not": 6208,
      "Ġera": 6209,
      "ura": 6210,
      "Me": 6211,
      "Ġfellow": 6212,
      "Ġwealth": 6213,
      "ĠMake": 6214,
      "ĠThank": 6215,
      "Ġacting": 6216,
      "Ġexcited": 6217,
      "Ġunivers": 6218,
      "ĠWednes": 6219,
      "Ġ38": 6220,
      "Ġperforming": 6221,
      "Ġchain": 6222,
      "Ġunlike": 6223,
      "Ġborder": 6224,
      "Ġprotected": 6225,
      "Ġwebsites": 6226,
      "Ġiniti": 6227,
      "ĠJournal": 6228,
      "Ġeffectively": 6229,
      "Ġoutdoor": 6230,
      "arks": 6231,
      "Ġcasino": 6232,
      "itan": 6233,
      "Ġcream": 6234,
      "Ġcapable": 6235,
      "Ġsubsequent": 6236,
      "Ġweapons": 6237,
      "ylvania": 6238,
      "Ġshell": 6239,
      "PA": 6240,
      "Ġhappens": 6241,
      "Ġauthorities": 6242,
      "eline": 6243,
      "ĠScotland": 6244,
      "lock": 6245,
      "ĠBas": 6246,
      "Ġ75": 6247,
      "uzz": 6248,
      "ora": 6249,
      "Ġputting": 6250,
      "Ġabsolutely": 6251,
      "Ġauth": 6252,
      "ĠDaniel": 6253,
      "iest": 6254,
      "Ã¤": 6255,
      "Ġsurgery": 6256,
      "ran": 6257,
      "ĠOnly": 6258,
      "Ġbelief": 6259,
      "Ġcycle": 6260,
      "rum": 6261,
      "Ġactor": 6262,
      "arts": 6263,
      "Ġreaders": 6264,
      "Ġcorrespond": 6265,
      "Ġemergency": 6266,
      "ĠFant": 6267,
      "Ġsevent": 6268,
      "Ġresc": 6269,
      "Ġpure": 6270,
      "Ġ48": 6271,
      "rome": 6272,
      "Ġshipping": 6273,
      "Ġdiscussion": 6274,
      "Ġ1950": 6275,
      "Ġhonor": 6276,
      "estyle": 6277,
      "ĠDevelopment": 6278,
      "ket": 6279,
      "Ġdinner": 6280,
      "rell": 6281,
      "ĠManchester": 6282,
      "Ġsustain": 6283,
      "Ġlibrary": 6284,
      "ĠOF": 6285,
      "Ġcontaining": 6286,
      "Ġfees": 6287,
      "Ġpublish": 6288,
      "EM": 6289,
      "ĠLine": 6290,
      "ĠViet": 6291,
      "Ġproperly": 6292,
      "ĠProfess": 6293,
      "ele": 6294,
      "mal": 6295,
      "ĠRam": 6296,
      "Ġequal": 6297,
      "orney": 6298,
      "Ġteeth": 6299,
      "Ġdescription": 6300,
      "ĠMike": 6301,
      "Ġtopic": 6302,
      "Ġpractical": 6303,
      "itionally": 6304,
      "anges": 6305,
      "Ġafternoon": 6306,
      "azon": 6307,
      "Ġwinner": 6308,
      "ĠAud": 6309,
      "uesday": 6310,
      "Ġrefused": 6311,
      "Ġexciting": 6312,
      "LC": 6313,
      "Ġtransferred": 6314,
      "ĠFoundation": 6315,
      "Ġdivided": 6316,
      "iations": 6317,
      "Ġoptim": 6318,
      "Ġfantastic": 6319,
      "ĠFoot": 6320,
      "Ġidentity": 6321,
      "ĠOhio": 6322,
      "IM": 6323,
      "FA": 6324,
      "ĠCall": 6325,
      "Ġrecon": 6326,
      "Ġdollars": 6327,
      "erves": 6328,
      "Ġaffect": 6329,
      "Ġrow": 6330,
      "Ġtermin": 6331,
      "Ġsessions": 6332,
      "Ġmountain": 6333,
      "Ġsoul": 6334,
      "Ġwitness": 6335,
      "Ġscientific": 6336,
      "ĠHun": 6337,
      "Ġhelpful": 6338,
      "Ġbattery": 6339,
      "Ġtravell": 6340,
      "Ġmotiv": 6341,
      "orters": 6342,
      "Ġsought": 6343,
      "Ġdebt": 6344,
      "Ġsuggests": 6345,
      "hand": 6346,
      "ĠLive": 6347,
      "Ġasking": 6348,
      "Ġcovers": 6349,
      "Ġbroke": 6350,
      "Americ": 6351,
      "Ġburn": 6352,
      "ĠNin": 6353,
      "Ġknows": 6354,
      "ĠDisney": 6355,
      "Ġheavily": 6356,
      "race": 6357,
      "osa": 6358,
      "Ġdepos": 6359,
      "ĠJersey": 6360,
      "ĠNorthern": 6361,
      "aga": 6362,
      "Ġpoet": 6363,
      "ĠWhy": 6364,
      "ĠAvenue": 6365,
      "aren": 6366,
      "Ġ150": 6367,
      "Ġmetres": 6368,
      "ĠAD": 6369,
      "ighth": 6370,
      "quarters": 6371,
      "Ġcertified": 6372,
      "Ġnarrow": 6373,
      "ĠJoseph": 6374,
      "Ġhydro": 6375,
      "Ġparticipate": 6376,
      "Ġclimb": 6377,
      "ĠProv": 6378,
      "pret": 6379,
      "kins": 6380,
      "Ġscholars": 6381,
      "Ġstruck": 6382,
      "Ġinstit": 6383,
      "Ġwouldn": 6384,
      "Ġregister": 6385,
      "isms": 6386,
      "Ġdefined": 6387,
      "Ġben": 6388,
      "ĠField": 6389,
      "aked": 6390,
      "Ġcontest": 6391,
      "Ġteach": 6392,
      "Ġbrings": 6393,
      "Ġconcerned": 6394,
      "ao": 6395,
      "ĠSaint": 6396,
      "istan": 6397,
      "Ġphase": 6398,
      "Ġcommented": 6399,
      "net": 6400,
      "Ġmail": 6401,
      "ĠData": 6402,
      "ĠNight": 6403,
      "ĠEr": 6404,
      "Ġfaster": 6405,
      "ĠReview": 6406,
      "Ġreflect": 6407,
      "ĠTwitter": 6408,
      "Ġtickets": 6409,
      "Ġplastic": 6410,
      "Ġobtained": 6411,
      "Ġrevenue": 6412,
      "Ġfal": 6413,
      "ĠSocial": 6414,
      "47": 6415,
      "chest": 6416,
      "upp": 6417,
      "Ġreception": 6418,
      "Ġsugar": 6419,
      "ossible": 6420,
      "Ġupdated": 6421,
      "Ġgod": 6422,
      "Ġviewers": 6423,
      "Ġengineering": 6424,
      "Ġreturns": 6425,
      "ture": 6426,
      "ĠArab": 6427,
      "Ġparticipants": 6428,
      "ï¼": 6429,
      "Ġgather": 6430,
      "Ġlisten": 6431,
      "Can": 6432,
      "Ġeating": 6433,
      "Ġresolution": 6434,
      "Ġconsists": 6435,
      "Ġundert": 6436,
      "Back": 6437,
      "Ġsurf": 6438,
      "Ġsimpl": 6439,
      "Ġtests": 6440,
      "Ġroyal": 6441,
      "Ġmaintained": 6442,
      "gent": 6443,
      "hus": 6444,
      "ĠTer": 6445,
      "cluding": 6446,
      "run": 6447,
      "Ġgirls": 6448,
      "achel": 6449,
      "lywood": 6450,
      "Ġcommonly": 6451,
      "ĠLt": 6452,
      "Ġexplain": 6453,
      "Ġguard": 6454,
      "iro": 6455,
      "ignment": 6456,
      "Ġmenu": 6457,
      "ether": 6458,
      "antic": 6459,
      "ĠSingapore": 6460,
      "Ġkilomet": 6461,
      "ĠBre": 6462,
      "Ġmassive": 6463,
      "Ġvir": 6464,
      "ĠWeek": 6465,
      "Ġserves": 6466,
      "Ġfamiliar": 6467,
      "Ġhundreds": 6468,
      "Ġchannel": 6469,
      "Ġworry": 6470,
      "born": 6471,
      "Ġliber": 6472,
      "ĠDig": 6473,
      "ĠST": 6474,
      "ĠLim": 6475,
      "Ġturning": 6476,
      "Ġstopped": 6477,
      "iveness": 6478,
      "uce": 6479,
      "itage": 6480,
      "Ġregional": 6481,
      "Ġtypical": 6482,
      "Ġ...": 6483,
      "Ġeffic": 6484,
      "Ġproved": 6485,
      "Ġec": 6486,
      "Ġseeking": 6487,
      "Ġvisiting": 6488,
      "Ġrepresented": 6489,
      "Ġerror": 6490,
      "ĠThursday": 6491,
      "Ġcoal": 6492,
      "ĠConference": 6493,
      "Ġcompetitive": 6494,
      "ĠWat": 6495,
      "Ġtournament": 6496,
      "Ġmotion": 6497,
      "ĠInstead": 6498,
      "iat": 6499,
      "orses": 6500,
      "Ġsolar": 6501,
      "Your": 6502,
      "Ġflying": 6503,
      "Ġdomestic": 6504,
      "ĠâĢ¦": 6505,
      "Ġju": 6506,
      "Ġcontra": 6507,
      "Ġlaid": 6508,
      "Ġinspiration": 6509,
      "abled": 6510,
      "ĠAtt": 6511,
      "Ġtechnologies": 6512,
      "ĠOffic": 6513,
      "asty": 6514,
      "Ġcasual": 6515,
      "Ġawards": 6516,
      "ĠCreek": 6517,
      "ĠHand": 6518,
      "terest": 6519,
      "Ġvaluable": 6520,
      "ĠCoast": 6521,
      "Ġmental": 6522,
      "Ġautomatically": 6523,
      "Ġaccompan": 6524,
      "olt": 6525,
      "ĠGre": 6526,
      "Ġexcess": 6527,
      "Ġsupposed": 6528,
      "Ġregistered": 6529,
      "ĠSS": 6530,
      "aylor": 6531,
      "ĠPop": 6532,
      "ĠWomen": 6533,
      "Ġdepth": 6534,
      "Ġreputation": 6535,
      "ĠIns": 6536,
      "Ġalle": 6537,
      "Ġposts": 6538,
      "ĠCentre": 6539,
      "Ġappeal": 6540,
      "mail": 6541,
      "Ġdates": 6542,
      "Ġsigns": 6543,
      "Ġelectronic": 6544,
      "asters": 6545,
      "Ġrenew": 6546,
      "Ġfactor": 6547,
      "ilit": 6548,
      "Ġchampionship": 6549,
      "Ġcollect": 6550,
      "yon": 6551,
      "ĠCarl": 6552,
      "Ġattached": 6553,
      "ĠBrazil": 6554,
      "Ġfixed": 6555,
      "how": 6556,
      "\")": 6557,
      "long": 6558,
      "Ġstyles": 6559,
      "Ð¸": 6560,
      "Ġ37": 6561,
      "Ġequipped": 6562,
      "worth": 6563,
      "Ġurban": 6564,
      "ctic": 6565,
      "ĠNov": 6566,
      "Ġpersonnel": 6567,
      "related": 6568,
      "Ġvocals": 6569,
      "ĠCatholic": 6570,
      "Ġmine": 6571,
      "Ġpossibility": 6572,
      "Ġyounger": 6573,
      "Ġescape": 6574,
      "illy": 6575,
      "Ġcharges": 6576,
      "ico": 6577,
      "Ġremark": 6578,
      "ĠId": 6579,
      "gend": 6580,
      "weet": 6581,
      "Ġthoughts": 6582,
      "Ġconcluded": 6583,
      "42": 6584,
      "Ġcarbon": 6585,
      "Ġ1992": 6586,
      "Ġoperate": 6587,
      "Ġsequence": 6588,
      "Ġpilot": 6589,
      "ĠWednesday": 6590,
      "Ġ186": 6591,
      "rastructure": 6592,
      "ĠHotel": 6593,
      "OD": 6594,
      "elve": 6595,
      "ĠMic": 6596,
      "ĠPR": 6597,
      "Ġwearing": 6598,
      "ĠLind": 6599,
      "Ġtreated": 6600,
      "Man": 6601,
      "ĠThree": 6602,
      "ĠWho": 6603,
      "but": 6604,
      "ĠConf": 6605,
      "Ġincident": 6606,
      "Ġrecovery": 6607,
      "Ġreturning": 6608,
      "ĠTuesday": 6609,
      "Ġcontext": 6610,
      "?\"": 6611,
      "Ġhall": 6612,
      "Ġpatterns": 6613,
      "tainment": 6614,
      "Ġguess": 6615,
      "Ġcircumst": 6616,
      "!!!": 6617,
      "Ġcloser": 6618,
      "Ġenhance": 6619,
      "Ġflag": 6620,
      "Ġprogramme": 6621,
      "level": 6622,
      "ĠVis": 6623,
      "Ġtrained": 6624,
      "Ġ*": 6625,
      "Ġmig": 6626,
      "Ġmuseum": 6627,
      "Ġcampus": 6628,
      "Ġtitled": 6629,
      "Ġmerch": 6630,
      "iot": 6631,
      "Ġquiet": 6632,
      "Ġforg": 6633,
      "Ġprofile": 6634,
      "Ġflowers": 6635,
      "AF": 6636,
      "ĠHur": 6637,
      "Ġfreedom": 6638,
      "ĠFinal": 6639,
      "Ġsample": 6640,
      "Ġpoll": 6641,
      "osc": 6642,
      "ĠWild": 6643,
      "ĠReal": 6644,
      "ĠBal": 6645,
      "Ġperspective": 6646,
      "Ġsymptoms": 6647,
      "pes": 6648,
      "then": 6649,
      "Ġpump": 6650,
      "Ġdrivers": 6651,
      "ĠSet": 6652,
      "Ġofficially": 6653,
      "Ġnewspaper": 6654,
      "uting": 6655,
      "Ġoutput": 6656,
      "Ġsitting": 6657,
      "ĠPot": 6658,
      "Ġdatab": 6659,
      "onym": 6660,
      "appy": 6661,
      "Ġbass": 6662,
      "ĠDef": 6663,
      "ographic": 6664,
      "ef": 6665,
      "ĠCustom": 6666,
      "ĠJac": 6667,
      "Ġhousing": 6668,
      "Ġisol": 6669,
      "unior": 6670,
      "www": 6671,
      "Ġstrike": 6672,
      "Ġhttp": 6673,
      "Ġgrade": 6674,
      "Ġlights": 6675,
      "owntown": 6676,
      "Ġconfidence": 6677,
      "Ġfranch": 6678,
      "ĠOrig": 6679,
      "ĠGeorgia": 6680,
      "Ġbusy": 6681,
      "Ġinner": 6682,
      "ĠCommunity": 6683,
      "Ġobjects": 6684,
      "ella": 6685,
      "ĠPenns": 6686,
      "RS": 6687,
      "ba": 6688,
      "Ġfaced": 6689,
      "rat": 6690,
      "hered": 6691,
      "Ġholds": 6692,
      "ĠAuthor": 6693,
      "Ġadopted": 6694,
      "Ġmissed": 6695,
      "Ġpartnership": 6696,
      "Ġsight": 6697,
      "Ġreaction": 6698,
      "rog": 6699,
      "ĠFamily": 6700,
      "ĠMedic": 6701,
      "Ġcutting": 6702,
      "Ġroads": 6703,
      "Ġdesk": 6704,
      "Ġpublication": 6705,
      "Ġawesome": 6706,
      "ĠBattalion": 6707,
      "Ġenemy": 6708,
      "cohol": 6709,
      "Ġreliable": 6710,
      "ĠCheck": 6711,
      "Ġnuclear": 6712,
      "Ġ33": 6713,
      "Ġthemes": 6714,
      "Ġproducing": 6715,
      "Ġneighborhood": 6716,
      "car": 6717,
      "ĠJewish": 6718,
      "ĠBul": 6719,
      "oster": 6720,
      "Ġcandidate": 6721,
      "ups": 6722,
      "ĠOnline": 6723,
      "Ġshooting": 6724,
      "Ġ=": 6725,
      "Ġprominent": 6726,
      "Ġhumans": 6727,
      "olec": 6728,
      "ĠWord": 6729,
      "okes": 6730,
      "Ġtall": 6731,
      "TA": 6732,
      "Ġabsor": 6733,
      "ĠSquadron": 6734,
      "Ġdeals": 6735,
      "Ġrelief": 6736,
      "Ġchoices": 6737,
      "Ġengaged": 6738,
      "43": 6739,
      "Ġclar": 6740,
      "Ġcommander": 6741,
      "Ġsusp": 6742,
      "iminal": 6743,
      "Ġsecondary": 6744,
      "ĠIrish": 6745,
      "Ġtaught": 6746,
      "flow": 6747,
      "Ġemotional": 6748,
      "amber": 6749,
      "ĠMain": 6750,
      "Ġneck": 6751,
      "miral": 6752,
      "Ġsubmit": 6753,
      "Ġprovider": 6754,
      "Ġoperated": 6755,
      "ishop": 6756,
      "cknow": 6757,
      "ĠLatin": 6758,
      "SC": 6759,
      "ader": 6760,
      "ĠFederal": 6761,
      "Ġconcrete": 6762,
      "En": 6763,
      "ingly": 6764,
      "never": 6765,
      "Ġincreasingly": 6766,
      "Res": 6767,
      "och": 6768,
      "Ġmal": 6769,
      "ĠRay": 6770,
      "Ġdoubt": 6771,
      "Hist": 6772,
      "acks": 6773,
      "Ġtight": 6774,
      "hent": 6775,
      "Ġinput": 6776,
      "Ġcomprehensive": 6777,
      "ĠInfantry": 6778,
      "Ġstating": 6779,
      "iform": 6780,
      "ĠMP": 6781,
      "Ġvs": 6782,
      "Ġstrategies": 6783,
      "ĠWales": 6784,
      "Ġgrown": 6785,
      "ĠMD": 6786,
      "ĠFrancisco": 6787,
      "Ġfeels": 6788,
      "Ġrepeated": 6789,
      "print": 6790,
      "Ġletters": 6791,
      "Ġinvestigation": 6792,
      "ĠMicrosoft": 6793,
      "una": 6794,
      "ĠStan": 6795,
      "Ġtechnique": 6796,
      "Since": 6797,
      "Ġped": 6798,
      "ĠSup": 6799,
      "ĠClick": 6800,
      "Ġemployee": 6801,
      "87": 6802,
      "Ġunus": 6803,
      "Ġfinds": 6804,
      "Ġinnovative": 6805,
      "Ġgranted": 6806,
      "abeth": 6807,
      "aven": 6808,
      "Ġguys": 6809,
      "dden": 6810,
      "ĠNetwork": 6811,
      "Ġlicense": 6812,
      "wall": 6813,
      "Ġshortly": 6814,
      "However": 6815,
      "Ġfeedback": 6816,
      "Ġengage": 6817,
      "Ġwal": 6818,
      "ĠLiber": 6819,
      "Ġcharged": 6820,
      "peror": 6821,
      "ĠSpain": 6822,
      "ĠBrad": 6823,
      "Ġrecognition": 6824,
      "Com": 6825,
      "ĠAp": 6826,
      "ulating": 6827,
      "ĠEp": 6828,
      "ĠEntertainment": 6829,
      "Ġunknown": 6830,
      "Ġ1991": 6831,
      "Ġupl": 6832,
      "ĠThough": 6833,
      "Ġcommittee": 6834,
      "Ġnom": 6835,
      "ĠOtt": 6836,
      "Ġtherapy": 6837,
      "ĠHD": 6838,
      "reets": 6839,
      "ĠAL": 6840,
      "agues": 6841,
      "Ġinvited": 6842,
      "Ġinfl": 6843,
      "Ġrid": 6844,
      "Ġsufficient": 6845,
      "Ġformal": 6846,
      "FL": 6847,
      "dy": 6848,
      "Ġstations": 6849,
      "Ġarrival": 6850,
      "Ġdegrees": 6851,
      "Ġappointment": 6852,
      "Ġdomin": 6853,
      "ĠRon": 6854,
      "Ġingredients": 6855,
      "RC": 6856,
      "ĠTrust": 6857,
      "Ġfulf": 6858,
      "Ġfishing": 6859,
      "ĠPay": 6860,
      "ĠUse": 6861,
      "SP": 6862,
      "ĠDie": 6863,
      "ĠLear": 6864,
      "ibilities": 6865,
      "ĠJon": 6866,
      "ĠMedia": 6867,
      "Ġcouncil": 6868,
      "Ġaffordable": 6869,
      "osite": 6870,
      "Ġexpansion": 6871,
      "Ġdescribes": 6872,
      "Ġceremony": 6873,
      "pton": 6874,
      "ĠTrump": 6875,
      "Ġmeat": 6876,
      "ja": 6877,
      "Ġnone": 6878,
      "Ġnob": 6879,
      "Ġinformed": 6880,
      "Ġeducational": 6881,
      "Ġatmosphere": 6882,
      "Ġheads": 6883,
      "ushing": 6884,
      "Ġjudge": 6885,
      "ĠLook": 6886,
      "Ġconsidering": 6887,
      "adelph": 6888,
      "Ġnort": 6889,
      "Ġextension": 6890,
      "ĠHarrison": 6891,
      "Ġintroduction": 6892,
      "Ġpitch": 6893,
      "Ġdesignated": 6894,
      "ĠPrem": 6895,
      "Cont": 6896,
      "anwhile": 6897,
      "Ġviewed": 6898,
      "Just": 6899,
      "Ġacknow": 6900,
      "ilst": 6901,
      "Ġ55": 6902,
      "Ġtotally": 6903,
      "Ġ400": 6904,
      "opy": 6905,
      "ocket": 6906,
      "Ġcontrolled": 6907,
      "Ġlunch": 6908,
      "Ġoccas": 6909,
      "ilipp": 6910,
      "Ġdump": 6911,
      "Ġpregn": 6912,
      "Ġregions": 6913,
      "Ġ1993": 6914,
      "Ġstands": 6915,
      "ĠCaptain": 6916,
      "Ġkg": 6917,
      "Ġathlet": 6918,
      "Ġplug": 6919,
      "Ġwheel": 6920,
      "âĢ¢": 6921,
      "Ġrecipe": 6922,
      "Ġdogs": 6923,
      "Ġdisappoint": 6924,
      "ĠEnd": 6925,
      "Ġgrass": 6926,
      "Ġconduct": 6927,
      "Ġviolence": 6928,
      "ev": 6929,
      "ĠAM": 6930,
      "ĠOrder": 6931,
      "Ġhyp": 6932,
      "adelphia": 6933,
      "Ġauthors": 6934,
      "ĠHard": 6935,
      "Ġseasons": 6936,
      "Ġoppon": 6937,
      "Ġscen": 6938,
      "Ġdifferences": 6939,
      "Ġdiscussed": 6940,
      "Ġaccurate": 6941,
      "Ġprocedure": 6942,
      "ati": 6943,
      "ĠSound": 6944,
      "uls": 6945,
      "Ġdecade": 6946,
      "Ġadvis": 6947,
      "Ġacquired": 6948,
      "iana": 6949,
      "ologist": 6950,
      "Ġnormally": 6951,
      "Ġairport": 6952,
      "Ġsettings": 6953,
      "Ġarchitecture": 6954,
      "Ġentrance": 6955,
      "usher": 6956,
      "ĠBon": 6957,
      "Ġengines": 6958,
      "inations": 6959,
      "ersonal": 6960,
      "Ġstages": 6961,
      "ĠProte": 6962,
      "ĠParliament": 6963,
      "56": 6964,
      "Ġagric": 6965,
      "ĠPM": 6966,
      "Ġconsec": 6967,
      "Ġsudden": 6968,
      "Ġopposed": 6969,
      "Ġcrime": 6970,
      "ĠFar": 6971,
      "ĠAndrew": 6972,
      "Ġsingles": 6973,
      "ĠBase": 6974,
      "Ġwithdraw": 6975,
      "ĠPennsylvania": 6976,
      "ira": 6977,
      "merce": 6978,
      "ĠMedical": 6979,
      "mun": 6980,
      "Ġagents": 6981,
      "ĠRose": 6982,
      "Ġdispl": 6983,
      "Ġcomponent": 6984,
      "ÂŃ": 6985,
      "Ġanywhere": 6986,
      "Ġbrands": 6987,
      "Ġliterature": 6988,
      "Ġexpertise": 6989,
      "aired": 6990,
      "Ġsections": 6991,
      "Why": 6992,
      "edu": 6993,
      "alo": 6994,
      "antine": 6995,
      "Ġvo": 6996,
      "59": 6997,
      "olis": 6998,
      "Ġlovely": 6999,
      "perial": 7000,
      "Ġdelicious": 7001,
      "Ġconstant": 7002,
      "Ġourselves": 7003,
      "ĠCorpor": 7004,
      "Ġresidential": 7005,
      "!\"": 7006,
      "Ġalt": 7007,
      "anger": 7008,
      "ĠSquare": 7009,
      "ĠSenate": 7010,
      "Ġtrading": 7011,
      "Ġparticipated": 7012,
      "Ġinfluenced": 7013,
      "Ġfol": 7014,
      "Ġpasses": 7015,
      "Ġmatters": 7016,
      "Ste": 7017,
      "ĠGuard": 7018,
      "Ġentertainment": 7019,
      "Ġtank": 7020,
      "ulpt": 7021,
      "Ġtransition": 7022,
      "ilton": 7023,
      "ĠHuman": 7024,
      "Ġspin": 7025,
      "Ġphilosoph": 7026,
      "ication": 7027,
      "Ġtrend": 7028,
      "Ġqualified": 7029,
      "ĠChap": 7030,
      "Ġwing": 7031,
      "elly": 7032,
      "ĠKar": 7033,
      "Ġsolo": 7034,
      "Ġ1940": 7035,
      "pool": 7036,
      "Ġcandidates": 7037,
      "ĠTechnology": 7038,
      "Ġalbums": 7039,
      "ocolate": 7040,
      "host": 7041,
      "tr": 7042,
      "illery": 7043,
      "Ġ1930": 7044,
      "Ġorganic": 7045,
      "ERS": 7046,
      "ĠCivil": 7047,
      "ĠNever": 7048,
      "Ġfoundation": 7049,
      "Ġmovies": 7050,
      "Ġsuperior": 7051,
      "Ġbasket": 7052,
      "Pre": 7053,
      "Many": 7054,
      "elines": 7055,
      "foot": 7056,
      "ceived": 7057,
      "Ġscheme": 7058,
      "eries": 7059,
      "Ġfestival": 7060,
      "Ġfacing": 7061,
      "ĠDam": 7062,
      "Ġexternal": 7063,
      "Ġteen": 7064,
      "Ġelectrical": 7065,
      "ĠThus": 7066,
      "Ġwarn": 7067,
      "Ġexpanded": 7068,
      "essed": 7069,
      "Ġexped": 7070,
      "Ġproviders": 7071,
      "Ġtub": 7072,
      "Ġ49": 7073,
      "Ġinjuries": 7074,
      "ĠOxford": 7075,
      "season": 7076,
      "Ġacts": 7077,
      "ĠImp": 7078,
      "Ġlighting": 7079,
      "ĠOrgan": 7080,
      "ĠExper": 7081,
      "ulous": 7082,
      "ĠGro": 7083,
      "iversary": 7084,
      "Ġ1989": 7085,
      "OC": 7086,
      "icit": 7087,
      "ĠPass": 7088,
      "Ġusual": 7089,
      "ivalent": 7090,
      "Up": 7091,
      "eld": 7092,
      "Ġmoves": 7093,
      "Ġslowly": 7094,
      "Ġarts": 7095,
      "Ġcommitment": 7096,
      "ĠRom": 7097,
      "ĠMajor": 7098,
      "ĠNorm": 7099,
      "ĠBrook": 7100,
      "ĠPhiladelphia": 7101,
      "ĠHistor": 7102,
      "otes": 7103,
      "Ġvisible": 7104,
      "hell": 7105,
      "ĠBeat": 7106,
      "Ġupdates": 7107,
      "Ġdrugs": 7108,
      "Ġmoments": 7109,
      "PC": 7110,
      "Ġexception": 7111,
      "Ġimmediate": 7112,
      "Ġrapidly": 7113,
      "Ġpermanent": 7114,
      "300": 7115,
      "ige": 7116,
      "Ġcarrying": 7117,
      "Thanks": 7118,
      "ĠID": 7119,
      "ĠMir": 7120,
      "Ġmere": 7121,
      "Ġtea": 7122,
      "Ġbom": 7123,
      "Ġoccurs": 7124,
      "liance": 7125,
      "Ġduty": 7126,
      "ĠRod": 7127,
      "Ġexceed": 7128,
      "Ġbands": 7129,
      "Ġdrawn": 7130,
      "Ġbaseball": 7131,
      "Ġwww": 7132,
      "Ġfiction": 7133,
      "claim": 7134,
      "Ġmoder": 7135,
      "Ġnin": 7136,
      "tering": 7137,
      "Ġtiss": 7138,
      "Ġsurprise": 7139,
      "Ġcrisis": 7140,
      "gas": 7141,
      "ĠLew": 7142,
      "Ġopposition": 7143,
      "ĠEliz": 7144,
      "Ġenable": 7145,
      "Ġcooper": 7146,
      "Ġlicens": 7147,
      "Ġhorses": 7148,
      "Ġcoordin": 7149,
      "Ġlanding": 7150,
      "ĠKorea": 7151,
      "ĠDutch": 7152,
      "Ġpresentation": 7153,
      "Ġwarrant": 7154,
      "Ġguarantee": 7155,
      "Ġ34": 7156,
      "Ġproducers": 7157,
      "Ġremind": 7158,
      "Ġboost": 7159,
      "Ġsaving": 7160,
      "ĠBBC": 7161,
      "Ġoffensive": 7162,
      "uality": 7163,
      "Ġsoil": 7164,
      "Ġactors": 7165,
      "Ġapartment": 7166,
      "jo": 7167,
      "ĠBru": 7168,
      "ĠPo": 7169,
      "Ġbes": 7170,
      "Ġsteam": 7171,
      "ĠAbout": 7172,
      "ographer": 7173,
      "ĠVill": 7174,
      "Ġtrig": 7175,
      "Ġrestrict": 7176,
      "Ġtitles": 7177,
      "Ġbehavi": 7178,
      "Ġterritory": 7179,
      "ĠBand": 7180,
      "asts": 7181,
      "ĠStephen": 7182,
      "Ġscoring": 7183,
      "Ġpursu": 7184,
      "Ġparking": 7185,
      "Ġmonthly": 7186,
      "ĠSteve": 7187,
      "Ġprocedures": 7188,
      "App": 7189,
      "ications": 7190,
      "Ġrul": 7191,
      "ENT": 7192,
      "riers": 7193,
      "Ġguy": 7194,
      "ĠBrigade": 7195,
      "AND": 7196,
      "Ġclinical": 7197,
      "Ġinstructions": 7198,
      "ĠBudd": 7199,
      "Ġcomposition": 7200,
      "ĠPrince": 7201,
      "ĠCode": 7202,
      "umps": 7203,
      "Ġcircumstances": 7204,
      "des": 7205,
      "ĠFood": 7206,
      "Ġremote": 7207,
      "Ġinstitutions": 7208,
      "after": 7209,
      "ĠBed": 7210,
      "Ġdangerous": 7211,
      "Ġinfrastructure": 7212,
      "SS": 7213,
      "Ġzone": 7214,
      "Ġsizes": 7215,
      "ĠAri": 7216,
      "Ġspeaking": 7217,
      "uster": 7218,
      "ulty": 7219,
      "ji": 7220,
      "nic": 7221,
      "Ġspaces": 7222,
      "Ñĸ": 7223,
      "Ġlosses": 7224,
      "Ġprinted": 7225,
      "ĠBol": 7226,
      "Ġcollaboration": 7227,
      "ĠDub": 7228,
      "Ġjew": 7229,
      "Ġsixth": 7230,
      "ĠCroat": 7231,
      "ali": 7232,
      "Ġenthus": 7233,
      "attle": 7234,
      "Ġspr": 7235,
      "TH": 7236,
      "Ġgro": 7237,
      "Ġmonit": 7238,
      "Ġconsumers": 7239,
      "Ġimpressive": 7240,
      "rett": 7241,
      "Ġpremie": 7242,
      "ĠAND": 7243,
      "olve": 7244,
      "using": 7245,
      "ĠBall": 7246,
      "orders": 7247,
      "amps": 7248,
      "Ġentitled": 7249,
      "Ġimmig": 7250,
      "Ġnominated": 7251,
      "ĠWrit": 7252,
      "ĠSanta": 7253,
      "ĠTaylor": 7254,
      "outheast": 7255,
      "Ġemployed": 7256,
      "Ġinnings": 7257,
      "ĠLtd": 7258,
      "Add": 7259,
      "ĠLab": 7260,
      "Ġbranch": 7261,
      "Ġtelling": 7262,
      "rip": 7263,
      "Ġveter": 7264,
      "Ġtruck": 7265,
      "Ġlandscape": 7266,
      "Ġexpression": 7267,
      "Ġpurs": 7268,
      "gs": 7269,
      "ĠTO": 7270,
      "ĠRog": 7271,
      "Ġimpossible": 7272,
      "Ġappreciate": 7273,
      "ĠJr": 7274,
      "Ġemployment": 7275,
      "Ġmessages": 7276,
      "Ġpromoted": 7277,
      "Ġtrouble": 7278,
      "Ġpiano": 7279,
      "ĠDark": 7280,
      "ĠExt": 7281,
      "Ġsupports": 7282,
      "Ġcontributed": 7283,
      "Ġrealize": 7284,
      "Ġmeetings": 7285,
      "ĠOs": 7286,
      "Ġsheet": 7287,
      "ĠAirport": 7288,
      "Every": 7289,
      "Ġmanufacturing": 7290,
      "unes": 7291,
      "Ġlinked": 7292,
      "away": 7293,
      "Ġdesigner": 7294,
      "Thank": 7295,
      "Äĩ": 7296,
      "organ": 7297,
      "aste": 7298,
      "ĠPers": 7299,
      "ĠHa": 7300,
      "Ġneut": 7301,
      "ĠEs": 7302,
      "Ġliquid": 7303,
      "Ke": 7304,
      "icate": 7305,
      "ĠAsh": 7306,
      "ĠSummer": 7307,
      "Ġchapter": 7308,
      "law": 7309,
      "adow": 7310,
      "ĠFre": 7311,
      "Ġresource": 7312,
      "Ġconsumer": 7313,
      "Ġrestaurants": 7314,
      "ĠMadonna": 7315,
      "ĠHind": 7316,
      "Ġrequested": 7317,
      "Te": 7318,
      "Ġdismiss": 7319,
      "onto": 7320,
      "ĠConne": 7321,
      "ĠSeveral": 7322,
      "ĠWilson": 7323,
      "ĠKorean": 7324,
      "Ġrose": 7325,
      "Ġ64": 7326,
      "Ġcompens": 7327,
      "iter": 7328,
      "Ġmini": 7329,
      "Ġsignal": 7330,
      "Ġpaying": 7331,
      "Ġmachines": 7332,
      "ĠOcean": 7333,
      "Ġpromotion": 7334,
      "Ġtasks": 7335,
      "Ġaspect": 7336,
      "ĠRome": 7337,
      "Ġshock": 7338,
      "ĠInformation": 7339,
      "Ġincreases": 7340,
      "Ġconstantly": 7341,
      "ĠStation": 7342,
      "Ġcoup": 7343,
      "Ġrevolution": 7344,
      "Ġproposal": 7345,
      "IR": 7346,
      "ĠNick": 7347,
      "Ġbutter": 7348,
      "ĠRegiment": 7349,
      "lete": 7350,
      "Ġnurs": 7351,
      "ami": 7352,
      "resents": 7353,
      "Ġpolitics": 7354,
      "Ġretirement": 7355,
      "%.": 7356,
      "Ġfired": 7357,
      "Ġdistinct": 7358,
      "ĠCa": 7359,
      "Ġsan": 7360,
      "Ġbirthday": 7361,
      "ĠVictoria": 7362,
      "Ġdiverse": 7363,
      "Ġassets": 7364,
      "ĠVideo": 7365,
      "Ġtower": 7366,
      "ashed": 7367,
      "Ġvul": 7368,
      "Ġparalle": 7369,
      "Ġjoy": 7370,
      "Ġelig": 7371,
      "Most": 7372,
      "ĠEastern": 7373,
      "ieuten": 7374,
      "ĠCommon": 7375,
      "Ġbreakfast": 7376,
      "theless": 7377,
      "Ġassessment": 7378,
      "Ġdish": 7379,
      "Ġperfectly": 7380,
      "Ġindicated": 7381,
      "Ġintelligence": 7382,
      "ko": 7383,
      "ione": 7384,
      "ĠTake": 7385,
      "ĠSus": 7386,
      "uts": 7387,
      "Ġhistoric": 7388,
      "52": 7389,
      "Ġexistence": 7390,
      "Ġreligion": 7391,
      "ĠHistory": 7392,
      "ĠRadio": 7393,
      "rations": 7394,
      "Ġappearances": 7395,
      "ĠChildren": 7396,
      "Ġtough": 7397,
      "ĠGree": 7398,
      "ĠNH": 7399,
      "Ġexposure": 7400,
      "Ġextent": 7401,
      "ĠAdminist": 7402,
      "century": 7403,
      "Ġinterpret": 7404,
      "CH": 7405,
      "Ġwet": 7406,
      "Ġargued": 7407,
      "ĠVen": 7408,
      "Ġsituations": 7409,
      "Ġimprovement": 7410,
      "Ġinjured": 7411,
      "Ġpeaked": 7412,
      "Ġsuffering": 7413,
      "pir": 7414,
      "Ġtact": 7415,
      "Ġbond": 7416,
      "Ġauto": 7417,
      "Ġtopics": 7418,
      "ÑĢ": 7419,
      "aka": 7420,
      "ĠSecurity": 7421,
      "Ġbonus": 7422,
      "SA": 7423,
      "rix": 7424,
      "apos": 7425,
      "Ġopposite": 7426,
      "ĠIde": 7427,
      "Ġmeal": 7428,
      "ĠMountain": 7429,
      "list": 7430,
      "Ġphen": 7431,
      "Ġconversation": 7432,
      "American": 7433,
      "Ġspoke": 7434,
      "ockey": 7435,
      "Ġheaded": 7436,
      "Ġpowers": 7437,
      "Ġodd": 7438,
      "ĠLast": 7439,
      "Ġrural": 7440,
      "Ġinfo": 7441,
      "Ġkinds": 7442,
      "Ġpreparation": 7443,
      "Ġefficiency": 7444,
      "Ġassault": 7445,
      "Ġkit": 7446,
      "Ġkilling": 7447,
      "Ġretired": 7448,
      "ĠPhilipp": 7449,
      "Ġhosted": 7450,
      "oven": 7451,
      "Ġ42": 7452,
      "jection": 7453,
      "ventional": 7454,
      "ĠFleet": 7455,
      "à¤": 7456,
      "ĠAdv": 7457,
      "Ġaffili": 7458,
      "ĠStudios": 7459,
      "Ġliked": 7460,
      "ĠAT": 7461,
      "41": 7462,
      "ĠLog": 7463,
      "athan": 7464,
      "Ġknowing": 7465,
      "vy": 7466,
      "Ġmanual": 7467,
      "Ġelectro": 7468,
      "ĠArm": 7469,
      "Ġpicked": 7470,
      "69": 7471,
      "Ġpin": 7472,
      "Ġhits": 7473,
      "acc": 7474,
      "ĠTurn": 7475,
      "terior": 7476,
      "iece": 7477,
      "Ġille": 7478,
      "ĠHave": 7479,
      "Ġaccompanied": 7480,
      "Get": 7481,
      "Ġremoval": 7482,
      "ĠAmazon": 7483,
      "gage": 7484,
      "Ĥ¬": 7485,
      "Ġ39": 7486,
      "Ġstudied": 7487,
      "Ġflash": 7488,
      "Ġdescribe": 7489,
      "Ġtemporary": 7490,
      "Ġoffices": 7491,
      "Ġroutine": 7492,
      "bro": 7493,
      "Ġchallenging": 7494,
      "pan": 7495,
      "Ġcorn": 7496,
      "Ġreserve": 7497,
      "Ġdevelopers": 7498,
      "Ġdomain": 7499,
      "PR": 7500,
      "ĠKn": 7501,
      "Ġwatched": 7502,
      "Tube": 7503,
      "aks": 7504,
      "Ġregulations": 7505,
      "Ġinvent": 7506,
      "Ġtested": 7507,
      "Over": 7508,
      "asting": 7509,
      "Ġfiled": 7510,
      "ĠShort": 7511,
      "ache": 7512,
      "Ġindu": 7513,
      "Ġseats": 7514,
      "Ġagencies": 7515,
      "Ind": 7516,
      "Ġlap": 7517,
      "Ġentering": 7518,
      "Ġtables": 7519,
      "Ġthorough": 7520,
      "ĠSher": 7521,
      "ĠLuc": 7522,
      "Ġnetworks": 7523,
      "pat": 7524,
      "Ġ120": 7525,
      "ĠSpace": 7526,
      "Ġcriminal": 7527,
      "Ġvent": 7528,
      "ĠAndroid": 7529,
      "Ġarrive": 7530,
      "Ġerr": 7531,
      "Ġbike": 7532,
      "ĠGen": 7533,
      "Ġticket": 7534,
      "Ġ65": 7535,
      "Ġrepresents": 7536,
      "BI": 7537,
      "Ġsculpt": 7538,
      "engers": 7539,
      "Ġkeeps": 7540,
      "rets": 7541,
      "ĠTro": 7542,
      "Ġboys": 7543,
      "Ġvit": 7544,
      "ieutenant": 7545,
      "Ġbread": 7546,
      "ĠTru": 7547,
      "ennis": 7548,
      "Ġsearching": 7549,
      "isers": 7550,
      "Ġmob": 7551,
      "Ġengagement": 7552,
      "Ġmembership": 7553,
      "Ġconsistent": 7554,
      "usic": 7555,
      "Ġexplos": 7556,
      "Another": 7557,
      "Ġdrama": 7558,
      "Go": 7559,
      "ĠKat": 7560,
      "Ġclothing": 7561,
      "Ġadventure": 7562,
      "Early": 7563,
      "ĠHospital": 7564,
      "Ġshares": 7565,
      "ĠTherefore": 7566,
      "fol": 7567,
      "gian": 7568,
      "ĠSat": 7569,
      "ĠMatt": 7570,
      "Ġdrawing": 7571,
      "Ġdisplayed": 7572,
      "Ġru": 7573,
      "Ġevolution": 7574,
      "Ġdebate": 7575,
      "Ġconsecutive": 7576,
      "Ġadvoc": 7577,
      "Ġapproval": 7578,
      "ĠCirc": 7579,
      "unicip": 7580,
      "Ġexposed": 7581,
      "Ġtut": 7582,
      "ĠCook": 7583,
      "ĠWalk": 7584,
      "ansas": 7585,
      "Ġsubmitted": 7586,
      "orable": 7587,
      "uties": 7588,
      "Ġsemi": 7589,
      "Ġshots": 7590,
      "Ġapps": 7591,
      "Ġlegs": 7592,
      "ocation": 7593,
      "ĠIslands": 7594,
      "Ġeggs": 7595,
      "Ġbanks": 7596,
      "Ġvast": 7597,
      "Ġconsisted": 7598,
      "74": 7599,
      "First": 7600,
      "icing": 7601,
      "plete": 7602,
      "uan": 7603,
      "uine": 7604,
      "ĠLy": 7605,
      "Ġbigger": 7606,
      "Ġcaptain": 7607,
      "Ġalcohol": 7608,
      "ĠHon": 7609,
      "Ġsomewhat": 7610,
      "Ġdefensive": 7611,
      "shire": 7612,
      "Once": 7613,
      "Ġpredict": 7614,
      "84": 7615,
      "ĠWin": 7616,
      "Ġrelative": 7617,
      "Ġwooden": 7618,
      "Ġpremium": 7619,
      "mouth": 7620,
      "Ġsinging": 7621,
      "Ġaccessible": 7622,
      "Ġdebuted": 7623,
      "Ġreasonable": 7624,
      "Ġcomparison": 7625,
      "John": 7626,
      "ensus": 7627,
      "ĠHighway": 7628,
      "Ġanswers": 7629,
      "rend": 7630,
      "ĠUt": 7631,
      "Ġmilk": 7632,
      "uter": 7633,
      "ela": 7634,
      "ima": 7635,
      "Ġskill": 7636,
      "Ġfranchise": 7637,
      "Are": 7638,
      "uous": 7639,
      "ĠTam": 7640,
      "Ġstreets": 7641,
      "oir": 7642,
      "Ġmand": 7643,
      "ĠBang": 7644,
      "ĠSecretary": 7645,
      "Ġcable": 7646,
      "ĠDNA": 7647,
      "Ġshower": 7648,
      "nce": 7649,
      "asant": 7650,
      "erman": 7651,
      "ĠRepublican": 7652,
      "Ġbear": 7653,
      "Ġpersonally": 7654,
      "ĠBa": 7655,
      "Ġworst": 7656,
      "Ġbowl": 7657,
      "lyn": 7658,
      "Ġmagic": 7659,
      "51": 7660,
      "Ġcharacteristics": 7661,
      "Ġassistant": 7662,
      "Other": 7663,
      "bound": 7664,
      "Ġwond": 7665,
      "Ġcrop": 7666,
      "Ġstable": 7667,
      "aturally": 7668,
      "Ġinvolving": 7669,
      "Ġnaval": 7670,
      "ĠEle": 7671,
      "ĠOk": 7672,
      "Ġinvasion": 7673,
      "ĠCooper": 7674,
      "Ġhardware": 7675,
      "Ġpray": 7676,
      "Ġdatabase": 7677,
      "82": 7678,
      "ĪĴ": 7679,
      "ĠSav": 7680,
      "Ġincredible": 7681,
      "FC": 7682,
      "Ġblow": 7683,
      "ĠFull": 7684,
      "Ġanticip": 7685,
      "Ġamounts": 7686,
      "Ġfalling": 7687,
      "Ġsamples": 7688,
      "Ġleather": 7689,
      "ĠSupreme": 7690,
      "Ġmile": 7691,
      "ĠCR": 7692,
      "otton": 7693,
      "Ġstrongly": 7694,
      "ospit": 7695,
      "Ġpopularity": 7696,
      "Ġmurder": 7697,
      "Ġaer": 7698,
      "etts": 7699,
      "urrent": 7700,
      "Ġproof": 7701,
      "Ġtwelve": 7702,
      "ĠGi": 7703,
      "Ġkne": 7704,
      "Ġinterface": 7705,
      "lam": 7706,
      "Ġ1920": 7707,
      "arth": 7708,
      "Ġgate": 7709,
      "Ġinvestors": 7710,
      "Ġexpectations": 7711,
      "Ġspiritual": 7712,
      "].": 7713,
      "ĠRoy": 7714,
      "Ġcharts": 7715,
      "irts": 7716,
      "Ġvital": 7717,
      "Ġrental": 7718,
      "Ġawareness": 7719,
      "Ġther": 7720,
      "edia": 7721,
      "ĠCub": 7722,
      "nergy": 7723,
      "ĠSmall": 7724,
      "Ġrejected": 7725,
      "ĠSports": 7726,
      "Ġgreatly": 7727,
      "Ġsky": 7728,
      "Ġmolec": 7729,
      "ĠSky": 7730,
      "ĠCost": 7731,
      "Ġchat": 7732,
      "Ġmedicine": 7733,
      "81": 7734,
      "Ġregistration": 7735,
      "iger": 7736,
      "Ġhel": 7737,
      "Ġcarefully": 7738,
      "ĠElizabeth": 7739,
      "Tr": 7740,
      "Ġtrains": 7741,
      "Ġfacilit": 7742,
      "Ġ1942": 7743,
      "itutional": 7744,
      "ĠAlexander": 7745,
      "Ġabandoned": 7746,
      "ta": 7747,
      "Ġlake": 7748,
      "Ġweaken": 7749,
      "Ġfrust": 7750,
      "Ġfavourite": 7751,
      "made": 7752,
      "Ġreact": 7753,
      "stal": 7754,
      "ĠDrag": 7755,
      "Ġmining": 7756,
      "âĦ": 7757,
      "ĠHo": 7758,
      "ĠLibrary": 7759,
      "57": 7760,
      "awa": 7761,
      "Ġfactory": 7762,
      "Ġ1988": 7763,
      "Ġgraphics": 7764,
      "Ġbelieves": 7765,
      "Ġislands": 7766,
      "ĠGarden": 7767,
      "Ġlect": 7768,
      "ĠWhere": 7769,
      "achus": 7770,
      "ĠColl": 7771,
      "ĠSoft": 7772,
      "Ġassociation": 7773,
      "ĠColorado": 7774,
      "ĠFootball": 7775,
      "Ġintention": 7776,
      "rency": 7777,
      "Ġheadquarters": 7778,
      "grad": 7779,
      "Ġadm": 7780,
      "wa": 7781,
      "Ġfoods": 7782,
      "Ġcircuit": 7783,
      "ĠColumbia": 7784,
      "ĠHou": 7785,
      "ĠGuide": 7786,
      "ĠBroad": 7787,
      "ĠFund": 7788,
      "Ġages": 7789,
      "Ġglad": 7790,
      "AY": 7791,
      "ĠHoly": 7792,
      "inois": 7793,
      "ĠGolden": 7794,
      "just": 7795,
      "mble": 7796,
      "ĠDC": 7797,
      "aki": 7798,
      "rus": 7799,
      "sters": 7800,
      "orne": 7801,
      "Ġthin": 7802,
      "wich": 7803,
      "ĠBrian": 7804,
      "ila": 7805,
      "Ġbelt": 7806,
      "ĠPrime": 7807,
      "Ġcomedy": 7808,
      "ĠYes": 7809,
      "Ġcompletion": 7810,
      "History": 7811,
      "she": 7812,
      "Ġfairly": 7813,
      "oom": 7814,
      "ĠWhether": 7815,
      "Ġhire": 7816,
      "Ġreward": 7817,
      "illiant": 7818,
      "ĠKong": 7819,
      "Ġongoing": 7820,
      "obby": 7821,
      "Ġconvenient": 7822,
      "Ã¨": 7823,
      "Ġforth": 7824,
      "ĠDun": 7825,
      "archers": 7826,
      "wan": 7827,
      "Ġrig": 7828,
      "Ġauthent": 7829,
      "celer": 7830,
      "IF": 7831,
      "ca": 7832,
      "Ñģ": 7833,
      "ĠThose": 7834,
      "ĠYouTube": 7835,
      "ĠSyd": 7836,
      "Ġhip": 7837,
      "Ġyield": 7838,
      "Ġrhy": 7839,
      "Ġhosting": 7840,
      "Ġpapers": 7841,
      "ĠSix": 7842,
      "Ġmeets": 7843,
      "Ġintegrated": 7844,
      "Ġfram": 7845,
      "ĠWars": 7846,
      "ificate": 7847,
      "Ġcontinuing": 7848,
      "Ab": 7849,
      "yo": 7850,
      "ĠBrand": 7851,
      "ĠPow": 7852,
      "ĠDaily": 7853,
      "ĠInvest": 7854,
      "Ġlifestyle": 7855,
      "ĠDigital": 7856,
      "Ġtab": 7857,
      "Ġoverw": 7858,
      "Ġgrounds": 7859,
      "Ġencouraged": 7860,
      "ĠAdditionally": 7861,
      "Ġfalse": 7862,
      "OV": 7863,
      "ĠFarm": 7864,
      "Ġcann": 7865,
      "Ġmonitor": 7866,
      "Ġcenturies": 7867,
      "Ġstrategic": 7868,
      "OP": 7869,
      "eters": 7870,
      "ĠAdmiral": 7871,
      "achusetts": 7872,
      "83": 7873,
      "Ġdipl": 7874,
      "Ġhired": 7875,
      "earing": 7876,
      "Ġjack": 7877,
      "Ġski": 7878,
      "Ġcooking": 7879,
      "ĠInn": 7880,
      "Ġplatforms": 7881,
      "Ġpm": 7882,
      "Ġintense": 7883,
      "Ġsettlement": 7884,
      "Ð½": 7885,
      "Ġeld": 7886,
      "Ġcommunications": 7887,
      "ĠBuilding": 7888,
      "72": 7889,
      "ĠLow": 7890,
      "ordan": 7891,
      "Ġ1944": 7892,
      "Ġcovering": 7893,
      "Us": 7894,
      "gor": 7895,
      "Ġprove": 7896,
      "ML": 7897,
      "Ġdiamond": 7898,
      "CA": 7899,
      "Ġdowntown": 7900,
      "Ġhook": 7901,
      "Ġcomic": 7902,
      "ĠHollywood": 7903,
      "Ġseriously": 7904,
      "Am": 7905,
      "ĠCape": 7906,
      "Ġclothes": 7907,
      "Ġcontrols": 7908,
      "ĠFantasy": 7909,
      "Ġvulner": 7910,
      "ource": 7911,
      "ĠStaff": 7912,
      "annels": 7913,
      "Ġpayments": 7914,
      "Ġtip": 7915,
      "Ġdistingu": 7916,
      "Ġrival": 7917,
      "ĠJustice": 7918,
      "Ġroughly": 7919,
      "ĠEconom": 7920,
      "ĠHung": 7921,
      "Ġnoticed": 7922,
      "Ġphotography": 7923,
      "Ġhidden": 7924,
      "olid": 7925,
      "ĠList": 7926,
      "ĠKim": 7927,
      "ĠToronto": 7928,
      "ĠTable": 7929,
      "ĠSn": 7930,
      "char": 7931,
      "Ġgenerated": 7932,
      "Ġlands": 7933,
      "Ġprivacy": 7934,
      "Let": 7935,
      "ifies": 7936,
      "Ġamend": 7937,
      "Ġ1987": 7938,
      "ĠGovernor": 7939,
      "Ġstretch": 7940,
      "aska": 7941,
      "Ġtooth": 7942,
      "Ġhill": 7943,
      "ĠAnderson": 7944,
      "Ġsad": 7945,
      "Ġthread": 7946,
      "ĠBalt": 7947,
      "Ġdriven": 7948,
      "ĠGlobal": 7949,
      "Ġlegislation": 7950,
      "ĠIce": 7951,
      "Ġtorped": 7952,
      "Ġhole": 7953,
      "ums": 7954,
      "ĠIran": 7955,
      "ĠMassachusetts": 7956,
      "Yes": 7957,
      "ĠWW": 7958,
      "ĠDoctor": 7959,
      "Ġresearchers": 7960,
      "Ġrailway": 7961,
      "ĠCorn": 7962,
      "Ġindeed": 7963,
      "Ġsaved": 7964,
      "Ġfasc": 7965,
      "ĠRaj": 7966,
      "Ġparam": 7967,
      "Phone": 7968,
      "oking": 7969,
      "Ġupload": 7970,
      "ĠFA": 7971,
      "Ġtemplate": 7972,
      "Ġtowns": 7973,
      "Ġstead": 7974,
      "ighters": 7975,
      "Ġcreates": 7976,
      "Ġcrucial": 7977,
      "Ġexhibition": 7978,
      "Ġpreferred": 7979,
      "Ġlies": 7980,
      "ĠCru": 7981,
      "emed": 7982,
      "Ġmyth": 7983,
      "eping": 7984,
      "Ġbenefic": 7985,
      "you": 7986,
      "ĠTreat": 7987,
      "ĠLabor": 7988,
      "ello": 7989,
      "Ġminimal": 7990,
      "liest": 7991,
      "Ġprecise": 7992,
      "Ġwounded": 7993,
      "Ġfo": 7994,
      "Ġ41": 7995,
      "Ġmounted": 7996,
      "ĠScottish": 7997,
      "ĠMiller": 7998,
      "do": 7999,
      "oup": 8000,
      "asp": 8001,
      "ĠPict": 8002,
      "ĠOR": 8003,
      "agan": 8004,
      "Ġsoundtrack": 8005,
      "Ġindicate": 8006,
      "Comp": 8007,
      "Ġocean": 8008,
      "Ġ46": 8009,
      "Ġrealized": 8010,
      "Ġinnovation": 8011,
      "Ġcastle": 8012,
      "Ġtalent": 8013,
      "arry": 8014,
      "ĠDog": 8015,
      "Ġseed": 8016,
      "ureau": 8017,
      "Ġouter": 8018,
      "ĠDavis": 8019,
      "esterday": 8020,
      "ĠDownload": 8021,
      "rating": 8022,
      "heim": 8023,
      "ĠHomer": 8024,
      "comes": 8025,
      "person": 8026,
      "Ġoutstanding": 8027,
      "ilation": 8028,
      "Ġcrash": 8029,
      "Ġpercentage": 8030,
      "Ġcrossing": 8031,
      "Ġarrangement": 8032,
      "orry": 8033,
      "ĠBern": 8034,
      "Ġ250": 8035,
      "aints": 8036,
      "ĠAlbert": 8037,
      "break": 8038,
      "Ġaired": 8039,
      "Ġfinishing": 8040,
      "tendo": 8041,
      "Ġpainted": 8042,
      "ĠAgain": 8043,
      "ĠIndiana": 8044,
      "iology": 8045,
      "ardens": 8046,
      "Ġblocks": 8047,
      "ĠControl": 8048,
      "73": 8049,
      "rons": 8050,
      "odge": 8051,
      "ferences": 8052,
      "case": 8053,
      "ĠNOT": 8054,
      "Ġillness": 8055,
      "ĠAtlanta": 8056,
      "âĦ¢": 8057,
      "wart": 8058,
      "Ġlists": 8059,
      "aha": 8060,
      "ĠTech": 8061,
      "Ġjoining": 8062,
      "Ġsick": 8063,
      "Ġprofit": 8064,
      "Ġlimits": 8065,
      "Following": 8066,
      "rator": 8067,
      "Ġgross": 8068,
      "igen": 8069,
      "ĠNC": 8070,
      "Ġdelight": 8071,
      "aning": 8072,
      "Ġunp": 8073,
      "ĠLeg": 8074,
      "ĠCambridge": 8075,
      "Ġprinciples": 8076,
      "cons": 8077,
      "that": 8078,
      "Ġsegment": 8079,
      "Ġpubl": 8080,
      "ĠCrit": 8081,
      "ĠColon": 8082,
      "Ġchoosing": 8083,
      "burgh": 8084,
      "71": 8085,
      "Ġsubjects": 8086,
      "Ġcelebrate": 8087,
      "Ġplane": 8088,
      "ĠYOU": 8089,
      "aders": 8090,
      "Ġceleb": 8091,
      "prene": 8092,
      "ï¿": 8093,
      "Ġlisting": 8094,
      "star": 8095,
      "Ġupcoming": 8096,
      "Ġintent": 8097,
      "including": 8098,
      "oral": 8099,
      "ĠPak": 8100,
      "Ġ1945": 8101,
      "Ġarranged": 8102,
      "Ġbriefly": 8103,
      "Ġprincipal": 8104,
      "Ġunusual": 8105,
      "ĠEqu": 8106,
      "Ġacres": 8107,
      "ĠCEO": 8108,
      "Ġpermission": 8109,
      "ĠKey": 8110,
      "Ġgraduate": 8111,
      "regon": 8112,
      "Ġreferences": 8113,
      "Ġluxury": 8114,
      "UT": 8115,
      "Ġvert": 8116,
      "ĠDream": 8117,
      "Ġlanguages": 8118,
      "UN": 8119,
      "ĠSaf": 8120,
      "Ġstayed": 8121,
      "mic": 8122,
      "ĠFind": 8123,
      "ogether": 8124,
      "Ġenforce": 8125,
      "Ġregarded": 8126,
      "hemat": 8127,
      "Ġtunn": 8128,
      "agle": 8129,
      "Ġclubs": 8130,
      "Ġsignature": 8131,
      "Ġmarks": 8132,
      "ĠLewis": 8133,
      "reprene": 8134,
      "rage": 8135,
      "orted": 8136,
      "aping": 8137,
      "Ġmeters": 8138,
      "Ġnest": 8139,
      "oys": 8140,
      "Ġ800": 8141,
      "ĠDuke": 8142,
      "Ġwrest": 8143,
      "ĠRoss": 8144,
      "Ġchicken": 8145,
      "Ġunex": 8146,
      "Ġregul": 8147,
      "ï¿½": 8148,
      "53": 8149,
      "erted": 8150,
      "ĠRos": 8151,
      "Ġrecover": 8152,
      "Ġ53": 8153,
      "Ġmoist": 8154,
      "Ġtone": 8155,
      "Ġcake": 8156,
      "Ġrepairs": 8157,
      "ĠPlus": 8158,
      "Ġdealing": 8159,
      "mers": 8160,
      "Ġstood": 8161,
      "Ġfeelings": 8162,
      "Ġ<": 8163,
      "Ġtack": 8164,
      "ĠAst": 8165,
      "Ġcourts": 8166,
      "Ġtemple": 8167,
      "Qu": 8168,
      "yers": 8169,
      "Ġeveryday": 8170,
      "BN": 8171,
      "aya": 8172,
      "Ġchocolate": 8173,
      "ĠSydney": 8174,
      "Ġpod": 8175,
      "Ġdur": 8176,
      "ĠMarsh": 8177,
      "Ġintensity": 8178,
      "ĠBarb": 8179,
      "Ġcounsel": 8180,
      "oken": 8181,
      "Ġsurprised": 8182,
      "ellect": 8183,
      "ĠConc": 8184,
      "ĠMu": 8185,
      "abb": 8186,
      "agen": 8187,
      "Ġequivalent": 8188,
      "Ġelectron": 8189,
      "Ġloans": 8190,
      "58": 8191,
      "aft": 8192,
      "Ġaccord": 8193,
      "Or": 8194,
      "Ġmanufacturer": 8195,
      "cÃ©": 8196,
      "oln": 8197,
      "eling": 8198,
      "ĠDra": 8199,
      "ĠJean": 8200,
      "Ġconverted": 8201,
      "Ġreign": 8202,
      "Ġneither": 8203,
      "ĠRest": 8204,
      "Ġcyclone": 8205,
      "Ġbehalf": 8206,
      "Ġcriticized": 8207,
      "ĠRevolution": 8208,
      "front": 8209,
      "Ġsoph": 8210,
      "ĠWorks": 8211,
      "ĠStock": 8212,
      "Ġcinem": 8213,
      "Ġrated": 8214,
      "Ġrebu": 8215,
      "54": 8216,
      "Ġconclusion": 8217,
      "ĠFord": 8218,
      "quir": 8219,
      "Ġlocks": 8220,
      "Ġmodified": 8221,
      "ĠChart": 8222,
      "Ġattach": 8223,
      "Ġrand": 8224,
      "ĠAnth": 8225,
      "ĠIllinois": 8226,
      "ĠĠ": 8227,
      "Ġfought": 8228,
      "ĠRyan": 8229,
      "Ġease": 8230,
      "Ġanx": 8231,
      "Ġworse": 8232,
      "Ġdesce": 8233,
      "Ġpleased": 8234,
      "ĠForest": 8235,
      "ĠHay": 8236,
      "Ġracing": 8237,
      "aware": 8238,
      "Ġweekly": 8239,
      "Ġcos": 8240,
      "Ġham": 8241,
      "Ġstored": 8242,
      "Ġcong": 8243,
      "Ġwrites": 8244,
      "Ġreduction": 8245,
      "gon": 8246,
      "Ġ@": 8247,
      "Ġwhilst": 8248,
      "Ġchannels": 8249,
      "Ġdecline": 8250,
      "ogen": 8251,
      "Ġboats": 8252,
      "Ġ1941": 8253,
      "Ġrepresentative": 8254,
      "ãĢ": 8255,
      "Ġreporting": 8256,
      "ĠMcG": 8257,
      "Ġgenuine": 8258,
      "Ġbrowser": 8259,
      "Ġphr": 8260,
      "Ñķ": 8261,
      "aria": 8262,
      "Ġshift": 8263,
      "ĠArgent": 8264,
      "Ġexplains": 8265,
      "ĠManager": 8266,
      "ĠPolice": 8267,
      "Ġcategories": 8268,
      "ador": 8269,
      "sex": 8270,
      "Ġmanaging": 8271,
      "Ġeleg": 8272,
      "Ġsending": 8273,
      "Ġreducing": 8274,
      "Ġtransportation": 8275,
      "ĠNintendo": 8276,
      "Ġbench": 8277,
      "Ġcul": 8278,
      "Ġstatements": 8279,
      "ĠStart": 8280,
      "Ġconfident": 8281,
      "Ġinvolves": 8282,
      "Ġstruggle": 8283,
      "ĠCastle": 8284,
      "ht": 8285,
      "Ġwins": 8286,
      "Ġ1986": 8287,
      "Ġdestination": 8288,
      "da": 8289,
      "Ġcoc": 8290,
      "Ġyes": 8291,
      "Ġstadium": 8292,
      "ĠBond": 8293,
      "Ġcancell": 8294,
      "Ġjustice": 8295,
      "ĠON": 8296,
      "Ġadmitted": 8297,
      "izer": 8298,
      "ĠStorm": 8299,
      "Ġpreced": 8300,
      "Ġlowest": 8301,
      "Ġperiods": 8302,
      "Ġimagine": 8303,
      "Ġarmed": 8304,
      "Ġalleged": 8305,
      "iary": 8306,
      "Ġempt": 8307,
      "Ġcrown": 8308,
      "omic": 8309,
      "ints": 8310,
      "Ġdemands": 8311,
      "ĠEst": 8312,
      "Ġpersonality": 8313,
      "Ġpassengers": 8314,
      "ancer": 8315,
      "Ġlogo": 8316,
      "ervative": 8317,
      "Ġ1943": 8318,
      "Ġhoriz": 8319,
      "orous": 8320,
      "Ġfolk": 8321,
      "Ġpace": 8322,
      "Ġhat": 8323,
      "Ġsharp": 8324,
      "acter": 8325,
      "Ġprogramming": 8326,
      "Ġfrag": 8327,
      "ĠLin": 8328,
      "aret": 8329,
      "Ġimproving": 8330,
      "ĠObama": 8331,
      "800": 8332,
      "ÑĤ": 8333,
      "ĠKir": 8334,
      "Ġclosing": 8335,
      "imp": 8336,
      "âĢĻ.": 8337,
      "Ġconnections": 8338,
      "ĠNorway": 8339,
      "Ġid": 8340,
      "ordon": 8341,
      "Ġoldest": 8342,
      "Ġwarning": 8343,
      "Ġantib": 8344,
      "lights": 8345,
      "Ġpounds": 8346,
      "Ġunderst": 8347,
      "Ġgenerate": 8348,
      "Ġfitted": 8349,
      "fa": 8350,
      "Ġrandom": 8351,
      "anning": 8352,
      "ĠCart": 8353,
      "ĠTheatre": 8354,
      "Ġlessons": 8355,
      "Ġdifficulty": 8356,
      "Ġpotentially": 8357,
      "isk": 8358,
      "Ġdiff": 8359,
      "ĠSilver": 8360,
      "tes": 8361,
      "inton": 8362,
      "ĠAsian": 8363,
      "Ġfitness": 8364,
      "Ġrisks": 8365,
      "????": 8366,
      "Ġvirtual": 8367,
      "Ġdental": 8368,
      "Ġfilming": 8369,
      "ĠHope": 8370,
      "Ġ44": 8371,
      "Ġfunny": 8372,
      "Ġloyal": 8373,
      "ĠCert": 8374,
      "ĠUpon": 8375,
      "ĠTerm": 8376,
      "ĠKa": 8377,
      "iking": 8378,
      "ĠFront": 8379,
      "Ġmovements": 8380,
      "Ġgrab": 8381,
      "ĠHouston": 8382,
      "ĠPear": 8383,
      "ĠGil": 8384,
      "berry": 8385,
      "anean": 8386,
      "Ġguidance": 8387,
      "Ġseventh": 8388,
      "ĠBurn": 8389,
      "Ġfilmed": 8390,
      "Ġanniversary": 8391,
      "Ġroutes": 8392,
      "Ġsauce": 8393,
      "Ġcarrier": 8394,
      "Ġtape": 8395,
      "Ġgallery": 8396,
      "Ġmixture": 8397,
      "Ġtaxes": 8398,
      "bal": 8399,
      "ygen": 8400,
      "ĠHug": 8401,
      "Ġcheese": 8402,
      "ĠiPhone": 8403,
      "Ġgenre": 8404,
      "Ġsynthes": 8405,
      "ĠWy": 8406,
      "Ġbattalion": 8407,
      "Ġcriticism": 8408,
      "Ġoverwhel": 8409,
      "01": 8410,
      "Ġnotable": 8411,
      "Ġexplan": 8412,
      "Ġarrested": 8413,
      "Ġpill": 8414,
      "Ġinse": 8415,
      "ĠOregon": 8416,
      "ĠHeart": 8417,
      "anth": 8418,
      "Ġstain": 8419,
      "Ġshops": 8420,
      "angle": 8421,
      "Ġlistening": 8422,
      "ete": 8423,
      "ikes": 8424,
      "ĠCarey": 8425,
      "Will": 8426,
      "oard": 8427,
      "ruption": 8428,
      "Ġvoted": 8429,
      "04": 8430,
      "Ġol": 8431,
      "ĠMah": 8432,
      "ĠArthur": 8433,
      "Ġminister": 8434,
      "Ġsurrounded": 8435,
      "Ġinstruments": 8436,
      "fire": 8437,
      "ĠNE": 8438,
      "Ġactress": 8439,
      "ĠIndepend": 8440,
      "ĠAllied": 8441,
      "Any": 8442,
      "ĠBad": 8443,
      "ĠHit": 8444,
      "ificial": 8445,
      "ĠHawai": 8446,
      "DA": 8447,
      "Ġsed": 8448,
      "Ġstim": 8449,
      "formance": 8450,
      "Ġdesired": 8451,
      "ĠHarry": 8452,
      "96": 8453,
      "roke": 8454,
      "Ġbreaking": 8455,
      "ĠRights": 8456,
      "ĠHend": 8457,
      "Ġraces": 8458,
      "power": 8459,
      "zing": 8460,
      "inking": 8461,
      "Ġnortheast": 8462,
      "reens": 8463,
      "ĠCra": 8464,
      "Ġrenov": 8465,
      "ĠDemocratic": 8466,
      "aud": 8467,
      "ĠIV": 8468,
      "acon": 8469,
      "Ġhang": 8470,
      "Ġgent": 8471,
      "Ġrefuge": 8472,
      "Ġscientists": 8473,
      "inos": 8474,
      "rer": 8475,
      "roit": 8476,
      "Ġgear": 8477,
      "anny": 8478,
      "ĠKevin": 8479,
      "ĠRoom": 8480,
      "mat": 8481,
      "Ġfro": 8482,
      "Ġmac": 8483,
      "Ġusage": 8484,
      "Ġhealthcare": 8485,
      "incoln": 8486,
      "aug": 8487,
      "Ġinteract": 8488,
      "haust": 8489,
      "400": 8490,
      "ĠIP": 8491,
      "elcome": 8492,
      "ĠLady": 8493,
      "Ġrecognize": 8494,
      "ĠSuch": 8495,
      "ĠIron": 8496,
      "Ġlayout": 8497,
      "ĠMaryland": 8498,
      "atoes": 8499,
      "Ġgolf": 8500,
      "Ġbrothers": 8501,
      "Ġmonitoring": 8502,
      "Ġbrid": 8503,
      "Ġboil": 8504,
      "Ġ1985": 8505,
      "Ġdistributed": 8506,
      "Ġenroll": 8507,
      "Ġresponded": 8508,
      "Ġsubstantial": 8509,
      "sm": 8510,
      "uz": 8511,
      "acle": 8512,
      "ĠEU": 8513,
      "Ġpowder": 8514,
      "MP": 8515,
      "oust": 8516,
      "ĠSite": 8517,
      "etary": 8518,
      "igate": 8519,
      "Ġsavings": 8520,
      "Ġkilometres": 8521,
      "Ġprinting": 8522,
      "iy": 8523,
      "ront": 8524,
      "Ġaf": 8525,
      "ĠMes": 8526,
      "iller": 8527,
      "ĠFer": 8528,
      "Ġshoes": 8529,
      "bre": 8530,
      "Ġcro": 8531,
      "ĠView": 8532,
      "endar": 8533,
      "Per": 8534,
      "Ġstrict": 8535,
      "Ġpersons": 8536,
      "otal": 8537,
      "ulum": 8538,
      "ervations": 8539,
      "Ġsettled": 8540,
      "Ġthousand": 8541,
      "Ġdies": 8542,
      "struction": 8543,
      "urse": 8544,
      "oli": 8545,
      "Ġcompare": 8546,
      "Ġunsu": 8547,
      "Ġmuscle": 8548,
      "Ġexpenses": 8549,
      "ecutive": 8550,
      "Ġindustries": 8551,
      "ials": 8552,
      "Ġsolve": 8553,
      "rooms": 8554,
      "ĠAmong": 8555,
      "Ġvenue": 8556,
      "urches": 8557,
      "ĠDue": 8558,
      "iki": 8559,
      "thew": 8560,
      "Ġhappening": 8561,
      "senal": 8562,
      "uris": 8563,
      "ĠIndones": 8564,
      "Ġgovernor": 8565,
      "Ġabsence": 8566,
      "Ġdynamic": 8567,
      "05": 8568,
      "erving": 8569,
      "uma": 8570,
      "Ġorchest": 8571,
      "Ġtransp": 8572,
      "minute": 8573,
      "Che": 8574,
      "Ġtheat": 8575,
      "ĠLes": 8576,
      "Ġartillery": 8577,
      "ĠEarly": 8578,
      "ĠFriend": 8579,
      "ĠBath": 8580,
      "ifer": 8581,
      "ĠEnergy": 8582,
      "mann": 8583,
      "Ġforecast": 8584,
      "Ġinch": 8585,
      "ĠRE": 8586,
      "ĠStory": 8587,
      "Ġdiscovery": 8588,
      "ouch": 8589,
      "athy": 8590,
      "Ġsurge": 8591,
      "ifted": 8592,
      "ĠVar": 8593,
      "Ġflights": 8594,
      "ĠPlant": 8595,
      "ĠNext": 8596,
      "Ġdenied": 8597,
      "Ġdollar": 8598,
      "ĠMachine": 8599,
      "fortunately": 8600,
      "orus": 8601,
      "Ġrug": 8602,
      "Ġknock": 8603,
      "ĠSpirit": 8604,
      "Ġgradually": 8605,
      "Ġobjective": 8606,
      "rem": 8607,
      "ĠTen": 8608,
      "ĠMoon": 8609,
      "ĠBh": 8610,
      "Ġtrick": 8611,
      "aza": 8612,
      "Ġcontribute": 8613,
      "Ġswimming": 8614,
      "Ġquote": 8615,
      "Ġnaturally": 8616,
      "ĠTar": 8617,
      "elle": 8618,
      "iterr": 8619,
      "Ġstunning": 8620,
      "ppers": 8621,
      "Ġchildhood": 8622,
      "Ġuncom": 8623,
      "ĠSupport": 8624,
      "Ġcoat": 8625,
      "Ġfilter": 8626,
      "Ġconstit": 8627,
      "ĠArea": 8628,
      "600": 8629,
      "rine": 8630,
      "Ġrecre": 8631,
      "Ġsupporters": 8632,
      "Background": 8633,
      "overs": 8634,
      "ĠBell": 8635,
      "ĠHart": 8636,
      "Ġuniform": 8637,
      "Ġretreat": 8638,
      "Ġpip": 8639,
      "ĠAff": 8640,
      "quest": 8641,
      "Ġcommissioned": 8642,
      "iac": 8643,
      "onia": 8644,
      "icide": 8645,
      "ĠHaving": 8646,
      "mary": 8647,
      "ns": 8648,
      "ĠAge": 8649,
      "ĠPub": 8650,
      "Ġchampion": 8651,
      "Ġuncle": 8652,
      "Ġfunctional": 8653,
      "unny": 8654,
      "ĠNether": 8655,
      "Ġratings": 8656,
      "Ġconcerning": 8657,
      "ĠEric": 8658,
      "Ġplayoff": 8659,
      "Ġloose": 8660,
      "Ġterror": 8661,
      "orce": 8662,
      "Ġstronger": 8663,
      "Ġamongst": 8664,
      "Ġsacr": 8665,
      "Ġpopulations": 8666,
      "ĠPack": 8667,
      "ĠOperation": 8668,
      "Ġdrew": 8669,
      "ĠMobile": 8670,
      "ĠBible": 8671,
      "Ġroot": 8672,
      "Ġpassage": 8673,
      "Ġpriority": 8674,
      "bing": 8675,
      "Ġduties": 8676,
      "stery": 8677,
      "Ġhandling": 8678,
      "Ġhistorian": 8679,
      "Ġdust": 8680,
      "sts": 8681,
      "igg": 8682,
      "ĠPDF": 8683,
      "ĠLiver": 8684,
      "ĠPlat": 8685,
      "Ġpenal": 8686,
      "ĠMagazine": 8687,
      "Ġelectricity": 8688,
      "Ġfur": 8689,
      "Ġinh": 8690,
      "Ġbeer": 8691,
      "Ġattorney": 8692,
      "ĠPhot": 8693,
      "Ġ1984": 8694,
      "ĠCountry": 8695,
      "ercury": 8696,
      "Ġflexible": 8697,
      "Ġmales": 8698,
      "Ġrend": 8699,
      "ĠBush": 8700,
      "Ġresidence": 8701,
      "Ġevac": 8702,
      "Ġinterchange": 8703,
      "cribed": 8704,
      "Ġrepresenting": 8705,
      "Ġargument": 8706,
      "ĠUsing": 8707,
      "wick": 8708,
      "Ġcompris": 8709,
      "Ġadds": 8710,
      "AB": 8711,
      "Col": 8712,
      "oyd": 8713,
      "Ġdisturb": 8714,
      "Ġstrengthen": 8715,
      "ĠDisc": 8716,
      "ĠJordan": 8717,
      "ĠPu": 8718,
      "Ġsees": 8719,
      "abet": 8720,
      "Ġads": 8721,
      "Ġcenters": 8722,
      "Ġstring": 8723,
      "orgeous": 8724,
      "Pe": 8725,
      "vals": 8726,
      "Ġbare": 8727,
      "ĠIra": 8728,
      "Ġaside": 8729,
      "Ġpoem": 8730,
      "Ġapproaches": 8731,
      "Ġtracking": 8732,
      "Ġrequirement": 8733,
      "Ġmillions": 8734,
      "Ġtemperatures": 8735,
      "Ġexpedition": 8736,
      "Well": 8737,
      "bered": 8738,
      "Ġcock": 8739,
      "ĠChannel": 8740,
      "Ġdiscl": 8741,
      "ĠUnivers": 8742,
      "Ġpromise": 8743,
      "bourne": 8744,
      "ĠSP": 8745,
      "pled": 8746,
      "ĠMov": 8747,
      "Ġalter": 8748,
      "ĠHan": 8749,
      "ĠNa": 8750,
      "Ġ1967": 8751,
      "ensions": 8752,
      "Ġhoping": 8753,
      "Ġpulled": 8754,
      "zed": 8755,
      "Ġdefence": 8756,
      "ĠPlace": 8757,
      "incess": 8758,
      "ĠReport": 8759,
      "Ġimprovements": 8760,
      "Ġneighb": 8761,
      "ĠJay": 8762,
      "Ġlawyer": 8763,
      "Ġburied": 8764,
      "ĠTransport": 8765,
      "Ġsin": 8766,
      "ĠAS": 8767,
      "ĠStadium": 8768,
      "Ġelections": 8769,
      "Ġdiscip": 8770,
      "Station": 8771,
      "ĠTony": 8772,
      "ĠSE": 8773,
      "ĠGulf": 8774,
      "Ġprovision": 8775,
      "Ġapproached": 8776,
      "enny": 8777,
      "Ġoccasionally": 8778,
      "bles": 8779,
      "lee": 8780,
      "ultane": 8781,
      "Ġflags": 8782,
      "ĠKnow": 8783,
      "Ġdefault": 8784,
      "ĠMemorial": 8785,
      "iterranean": 8786,
      "Ġthirty": 8787,
      "ĠBos": 8788,
      "Ġproport": 8789,
      "Ġinspe": 8790,
      "Ġpreparing": 8791,
      "tail": 8792,
      "ĠLad": 8793,
      "Ġabilities": 8794,
      "Ġclock": 8795,
      "Ġorganisation": 8796,
      "Ġultimate": 8797,
      "Ġproteins": 8798,
      "Ġske": 8799,
      "ĠLincoln": 8800,
      "More": 8801,
      "ĠSR": 8802,
      "ĠWatch": 8803,
      "acent": 8804,
      "ĠOak": 8805,
      "insula": 8806,
      "Ġcapabilities": 8807,
      "Ġ1968": 8808,
      "mates": 8809,
      "Ġ>": 8810,
      "Ġgifts": 8811,
      "Ġshirt": 8812,
      "ĠJam": 8813,
      "Ġconversion": 8814,
      "Ġsustained": 8815,
      "hour": 8816,
      "Ã¸": 8817,
      "Ġcolours": 8818,
      "Ġsurvived": 8819,
      "Ġdrinking": 8820,
      "ederation": 8821,
      "ĠMult": 8822,
      "ĠNaz": 8823,
      "Ġavailability": 8824,
      "Ġtrends": 8825,
      "Ġoccupied": 8826,
      "zona": 8827,
      "Ġgiant": 8828,
      "ĠIC": 8829,
      "idays": 8830,
      "autiful": 8831,
      "Ġimplementation": 8832,
      "ĠAR": 8833,
      "Ġsecured": 8834,
      "ĠGram": 8835,
      "aph": 8836,
      "reement": 8837,
      "Ġcomplicated": 8838,
      "ĠiP": 8839,
      "Ġconsiderable": 8840,
      "AG": 8841,
      "cut": 8842,
      "Ġfault": 8843,
      "ĠLisa": 8844,
      "Ġresid": 8845,
      "Ġparallel": 8846,
      "arr": 8847,
      "Ġmaintaining": 8848,
      "Ġconsideration": 8849,
      "ĠContact": 8850,
      "Ġpleasure": 8851,
      "Ġeligible": 8852,
      "Look": 8853,
      "ĠMaybe": 8854,
      "ĠAccount": 8855,
      "Ġvictims": 8856,
      "Ġprotest": 8857,
      "Ġfemales": 8858,
      "rates": 8859,
      "Ġmeasured": 8860,
      "igure": 8861,
      "Ġalive": 8862,
      "Before": 8863,
      "intage": 8864,
      "Ġindex": 8865,
      "Ġnoise": 8866,
      "May": 8867,
      "Ġvacation": 8868,
      "Ġphilosophy": 8869,
      "bell": 8870,
      "uper": 8871,
      "Ġax": 8872,
      "Ġwars": 8873,
      "ĠTenn": 8874,
      "Ġflour": 8875,
      "Ed": 8876,
      "TR": 8877,
      "inum": 8878,
      "rient": 8879,
      "ĠGreg": 8880,
      "Ġfalls": 8881,
      "ĠMalays": 8882,
      "gener": 8883,
      "iÄĩ": 8884,
      "Ġcited": 8885,
      "itting": 8886,
      "Ġfaces": 8887,
      "Ġrainfall": 8888,
      "ĠModern": 8889,
      "Ġtie": 8890,
      "Ġcarpet": 8891,
      "Ġcompete": 8892,
      "Ġcircle": 8893,
      "ĠTurk": 8894,
      "ĠRol": 8895,
      "Ġpharm": 8896,
      "aze": 8897,
      "Ġmountains": 8898,
      "Ġbegun": 8899,
      "world": 8900,
      "ĠBarn": 8901,
      "ĠRand": 8902,
      "ĠVII": 8903,
      "Ġimpressed": 8904,
      "ĠClark": 8905,
      "Ġvend": 8906,
      "Ġdeaths": 8907,
      "Ġsurvive": 8908,
      "ĠBox": 8909,
      "Ð¾Ð": 8910,
      "ĠBerlin": 8911,
      "ĠCorporation": 8912,
      "Co": 8913,
      "nie": 8914,
      "Ã±": 8915,
      "Ġyard": 8916,
      "ogy": 8917,
      "veland": 8918,
      "Ġ47": 8919,
      "ĠMarc": 8920,
      "mend": 8921,
      "rav": 8922,
      "ĠEvent": 8923,
      "Ġ51": 8924,
      "Ġsituated": 8925,
      "Ġapparently": 8926,
      "ĠBart": 8927,
      "ully": 8928,
      "ĠHim": 8929,
      "Ġovers": 8930,
      "Ġacceler": 8931,
      "ĠBrother": 8932,
      "Ġvessels": 8933,
      "Ġ600": 8934,
      "Ġfaculty": 8935,
      "Ġromantic": 8936,
      "iors": 8937,
      "Ġnick": 8938,
      "ĠDE": 8939,
      "ĠAlbum": 8940,
      "ucks": 8941,
      "ĠMinistry": 8942,
      "Ġdepends": 8943,
      "ĠHamilton": 8944,
      "Ġdiameter": 8945,
      "Ġuncertain": 8946,
      "Ġhunting": 8947,
      "itis": 8948,
      "opher": 8949,
      "ĠJane": 8950,
      "Last": 8951,
      "Ġwaves": 8952,
      "Ġbrilliant": 8953,
      "Ġcolleagues": 8954,
      "%,": 8955,
      "ĠCond": 8956,
      "verage": 8957,
      "Ġcoastal": 8958,
      "iti": 8959,
      "Ġlad": 8960,
      "Ġluck": 8961,
      "ĠNon": 8962,
      "ĠJoh": 8963,
      "Ġbuff": 8964,
      "Ġancest": 8965,
      "ĠVietnam": 8966,
      "otten": 8967,
      "ĠSerb": 8968,
      "Ġinvolvement": 8969,
      "onymous": 8970,
      "Im": 8971,
      "Ġbone": 8972,
      "Ġassemb": 8973,
      "ieties": 8974,
      "Ġ1983": 8975,
      "Ġtissue": 8976,
      "Ġcute": 8977,
      "ĠPur": 8978,
      "sole": 8979,
      "Ġpassenger": 8980,
      "ĠDiego": 8981,
      "MC": 8982,
      "Oh": 8983,
      "Ġmanufacturers": 8984,
      "Ġconvin": 8985,
      "Ġscr": 8986,
      "Ġrefers": 8987,
      "game": 8988,
      "Â°": 8989,
      "style": 8990,
      "Ġconscious": 8991,
      "Ġrestric": 8992,
      "ĠSweden": 8993,
      "ĠTal": 8994,
      "Ġconventional": 8995,
      "Ġtries": 8996,
      "Ġtraveling": 8997,
      "Ġflooding": 8998,
      "yoncÃ©": 8999,
      "Ġportfol": 9000,
      "DS": 9001,
      "aire": 9002,
      "Ġrising": 9003,
      "Ġsupplement": 9004,
      "Ġvisits": 9005,
      "Ġderived": 9006,
      "ĠIndustry": 9007,
      "ded": 9008,
      "Ġspecialist": 9009,
      "Ġparticipation": 9010,
      "Ġrescue": 9011,
      "tains": 9012,
      "Ġwides": 9013,
      "Ġma": 9014,
      "Ġwhereas": 9015,
      "Ġengineer": 9016,
      "67": 9017,
      "Gener": 9018,
      "Ġproven": 9019,
      "ĠLeon": 9020,
      "63": 9021,
      "Ġ43": 9022,
      "Ġfirms": 9023,
      "Ġhopes": 9024,
      "Ġshore": 9025,
      "Ġcompat": 9026,
      "Ġwhenever": 9027,
      "ailable": 9028,
      "Ġconsisting": 9029,
      "Ġdefinition": 9030,
      "Ġtrips": 9031,
      "Ġvolunteers": 9032,
      "Ġbottle": 9033,
      "Mar": 9034,
      "ĠTok": 9035,
      "ĠCH": 9036,
      "udes": 9037,
      "Ġabuse": 9038,
      "Ġoverse": 9039,
      "Ġpresents": 9040,
      "ĠMaria": 9041,
      "Ġtheatre": 9042,
      "Ġearliest": 9043,
      "Ġinteraction": 9044,
      "Ġconsumption": 9045,
      "Ġholes": 9046,
      "Ġcontinuous": 9047,
      "ĠMoore": 9048,
      "Ġintersection": 9049,
      "rants": 9050,
      "Ġfacts": 9051,
      "Ġconcepts": 9052,
      "Ġratio": 9053,
      "ĠSarah": 9054,
      "hol": 9055,
      "Ġassembly": 9056,
      "racy": 9057,
      "ĠFall": 9058,
      "ellite": 9059,
      "ĠChair": 9060,
      "ĠEmperor": 9061,
      "Ġconcentration": 9062,
      "produ": 9063,
      "Ġdim": 9064,
      "Ġaccused": 9065,
      "obs": 9066,
      "ĠMeanwhile": 9067,
      "ĠKentucky": 9068,
      "erior": 9069,
      "lessly": 9070,
      "Ġdrain": 9071,
      "ĠMediterranean": 9072,
      "liers": 9073,
      "Ġexhaust": 9074,
      "Ġpointed": 9075,
      "Ġpossess": 9076,
      "ĠOlympic": 9077,
      "Ġwra": 9078,
      "Ġoxygen": 9079,
      "GB": 9080,
      "mod": 9081,
      "Ġcontributions": 9082,
      "Ġtalks": 9083,
      "Ġincorporated": 9084,
      "rait": 9085,
      "ifting": 9086,
      "Ġlegend": 9087,
      "Ġopens": 9088,
      "Ġscores": 9089,
      "ĠFurthermore": 9090,
      "Ġinhib": 9091,
      "anted": 9092,
      "ĠRead": 9093,
      "bec": 9094,
      "âĢ¦.": 9095,
      "ĠCleveland": 9096,
      "ingham": 9097,
      "Ġpushed": 9098,
      "Ġchances": 9099,
      "Ġspark": 9100,
      "Ġfrequent": 9101,
      "Ġgall": 9102,
      "Ġraw": 9103,
      "Ġtreatments": 9104,
      "Ġdeclined": 9105,
      "Ġattractive": 9106,
      "Ġdisplays": 9107,
      "ĠIraq": 9108,
      "Ġfinance": 9109,
      "Ġgenus": 9110,
      "ĠPlayStation": 9111,
      "sea": 9112,
      "apse": 9113,
      "ĠConstitution": 9114,
      "ĠDetroit": 9115,
      "oz": 9116,
      "ĠSC": 9117,
      "Ġgram": 9118,
      "Ġintellect": 9119,
      "who": 9120,
      "Ġrice": 9121,
      "Ġentreprene": 9122,
      "68": 9123,
      "pread": 9124,
      "Ġborrow": 9125,
      "elson": 9126,
      "Ġattending": 9127,
      "oen": 9128,
      "Ġmood": 9129,
      "ĠSon": 9130,
      "utor": 9131,
      "Ġcomprom": 9132,
      "OK": 9133,
      "Ġstake": 9134,
      "ĠRun": 9135,
      "ĠOpt": 9136,
      "Ġresort": 9137,
      "Ġreleases": 9138,
      "Ġtrials": 9139,
      "amental": 9140,
      "ĠLED": 9141,
      "ĠJoy": 9142,
      "Ġrelie": 9143,
      "irds": 9144,
      "Ġheading": 9145,
      "Ġwalked": 9146,
      "ĠHurricane": 9147,
      "Today": 9148,
      "don": 9149,
      "ouri": 9150,
      "Ġpink": 9151,
      "ĠLiverpool": 9152,
      "Ġcod": 9153,
      "Ġreveal": 9154,
      "Best": 9155,
      "Ġlb": 9156,
      "Ġloves": 9157,
      "Ġunw": 9158,
      "Ġclassical": 9159,
      "Ġrarely": 9160,
      "Ġweapon": 9161,
      "Ġrely": 9162,
      "otive": 9163,
      "Ġabund": 9164,
      "brid": 9165,
      "Ġbasketball": 9166,
      "Ġunexpected": 9167,
      "iche": 9168,
      "ologists": 9169,
      "Ġfounder": 9170,
      "ĠArizona": 9171,
      "hist": 9172,
      "vision": 9173,
      "ols": 9174,
      "apolis": 9175,
      "Ġreader": 9176,
      "Ġ1982": 9177,
      "profit": 9178,
      "Ġhospit": 9179,
      "Ġmusicians": 9180,
      "Ġdiagram": 9181,
      "Ġphotographs": 9182,
      "Ġfolks": 9183,
      "omatic": 9184,
      "Reception": 9185,
      "Ġsquad": 9186,
      "aun": 9187,
      "Ġtanks": 9188,
      "isp": 9189,
      "oked": 9190,
      "Ġapplicable": 9191,
      "Ġdiseases": 9192,
      "Ġenemies": 9193,
      "Ġdent": 9194,
      "Ġfewer": 9195,
      "Ġenterprise": 9196,
      "ĠAuthority": 9197,
      "Ġillegal": 9198,
      "Ġlift": 9199,
      "Ġruled": 9200,
      "Ġworship": 9201,
      "Ġcasualties": 9202,
      "aron": 9203,
      "ika": 9204,
      "Ġ1976": 9205,
      "Ġaccounting": 9206,
      "Ġmechanical": 9207,
      "ĠRobinson": 9208,
      "xts": 9209,
      "Ġmanagers": 9210,
      "Ġadapted": 9211,
      "otype": 9212,
      "ycl": 9213,
      "Ġcrack": 9214,
      "Ġpassword": 9215,
      "ĠAdam": 9216,
      "Ġelsewhere": 9217,
      "Ġcampaigns": 9218,
      "Ġfrequency": 9219,
      "Ġindependence": 9220,
      "Ġlifetime": 9221,
      "Ġaggreg": 9222,
      "Two": 9223,
      "Ġtied": 9224,
      "Ġfest": 9225,
      "Ġgay": 9226,
      "Ġranging": 9227,
      "Ġarray": 9228,
      "issance": 9229,
      "Ġforming": 9230,
      "Ġcompleting": 9231,
      "script": 9232,
      "Ġkingdom": 9233,
      "Ġau": 9234,
      "ĠMul": 9235,
      "Ġrum": 9236,
      "writer": 9237,
      "Ġrhyth": 9238,
      "ä¸": 9239,
      "Ġcodes": 9240,
      "ito": 9241,
      "Ġdated": 9242,
      "ĠSign": 9243,
      "ĠHal": 9244,
      "Ġaccum": 9245,
      "Ġ1969": 9246,
      "Despite": 9247,
      "Ġpoetry": 9248,
      "Ġgarage": 9249,
      "bra": 9250,
      "ĠPin": 9251,
      "abil": 9252,
      "ĠSteel": 9253,
      "Ġcrossed": 9254,
      "orship": 9255,
      "ĠBatman": 9256,
      "zes": 9257,
      "Ġtiny": 9258,
      "stall": 9259,
      "Ġvice": 9260,
      "Ġspots": 9261,
      "Ġspeaker": 9262,
      "Ġobst": 9263,
      "Ġclassified": 9264,
      "Ġrecommendations": 9265,
      "ĠTraining": 9266,
      "Ġdeparture": 9267,
      "Ġpaintings": 9268,
      "uv": 9269,
      "Ġok": 9270,
      "athered": 9271,
      "ieval": 9272,
      "ĠArsenal": 9273,
      "Ġminim": 9274,
      "Ġdocumentary": 9275,
      "Ġaccomplish": 9276,
      "ĠCre": 9277,
      "Ġchurches": 9278,
      "ĠSmart": 9279,
      "LA": 9280,
      "igs": 9281,
      "ĠBi": 9282,
      "Ġoperational": 9283,
      "Ġstatistics": 9284,
      "Love": 9285,
      "ridge": 9286,
      "tical": 9287,
      "Ġmunicip": 9288,
      "ĠCry": 9289,
      "Ġash": 9290,
      "Ġheating": 9291,
      "Ġexport": 9292,
      "ĠUr": 9293,
      "Ġ1939": 9294,
      "Ġgrey": 9295,
      "ĠKennedy": 9296,
      "ĠProt": 9297,
      "ught": 9298,
      "ĠOttoman": 9299,
      "Ġempty": 9300,
      "Bec": 9301,
      "mph": 9302,
      "making": 9303,
      "ori": 9304,
      "Ġslot": 9305,
      "teenth": 9306,
      "iva": 9307,
      "Ġexplo": 9308,
      "Ġmoral": 9309,
      "ĠCreat": 9310,
      "Ġhotels": 9311,
      "friendly": 9312,
      "Ġtorpedo": 9313,
      "ĠGordon": 9314,
      "Ġcommunicate": 9315,
[...]
